{
  "version": "1.0",
  "truncation": null,
  "padding": null,
  "added_tokens": [],
  "normalizer": null,
  "pre_tokenizer": {
    "type": "Whitespace"
  },
  "post_processor": null,
  "decoder": null,
  "model": {
    "type": "BPE",
    "dropout": null,
    "unk_token": null,
    "continuing_subword_prefix": null,
    "end_of_word_suffix": null,
    "fuse_unk": false,
    "byte_fallback": false,
    "ignore_merges": false,
    "vocab": {
      "!": 0,
      "\"": 1,
      "#": 2,
      "$": 3,
      "%": 4,
      "&": 5,
      "'": 6,
      "(": 7,
      ")": 8,
      "*": 9,
      "+": 10,
      ",": 11,
      "-": 12,
      ".": 13,
      "/": 14,
      "0": 15,
      "1": 16,
      "2": 17,
      "3": 18,
      "4": 19,
      "5": 20,
      "6": 21,
      "7": 22,
      "8": 23,
      "9": 24,
      ":": 25,
      ";": 26,
      "<": 27,
      "=": 28,
      ">": 29,
      "?": 30,
      "@": 31,
      "A": 32,
      "B": 33,
      "C": 34,
      "D": 35,
      "E": 36,
      "F": 37,
      "G": 38,
      "H": 39,
      "I": 40,
      "J": 41,
      "K": 42,
      "L": 43,
      "M": 44,
      "N": 45,
      "O": 46,
      "P": 47,
      "Q": 48,
      "R": 49,
      "S": 50,
      "T": 51,
      "U": 52,
      "V": 53,
      "W": 54,
      "X": 55,
      "Y": 56,
      "Z": 57,
      "[": 58,
      "\\": 59,
      "]": 60,
      "^": 61,
      "_": 62,
      "`": 63,
      "a": 64,
      "b": 65,
      "c": 66,
      "d": 67,
      "e": 68,
      "f": 69,
      "g": 70,
      "h": 71,
      "i": 72,
      "j": 73,
      "k": 74,
      "l": 75,
      "m": 76,
      "n": 77,
      "o": 78,
      "p": 79,
      "q": 80,
      "r": 81,
      "s": 82,
      "t": 83,
      "u": 84,
      "v": 85,
      "w": 86,
      "x": 87,
      "y": 88,
      "z": 89,
      "{": 90,
      "|": 91,
      "}": 92,
      "~": 93,
      "": 94,
      "": 95,
      "": 96,
      "": 97,
      "": 98,
      "": 99,
      "": 100,
      "": 101,
      "": 102,
      "": 103,
      "": 104,
      "": 105,
      "": 106,
      "": 107,
      "": 108,
      "": 109,
      "": 110,
      "": 111,
      "": 112,
      "": 113,
      "": 114,
      "": 115,
      "": 116,
      "": 117,
      "": 118,
      "": 119,
      "¡": 120,
      "¢": 121,
      "£": 122,
      "¤": 123,
      "¥": 124,
      "¦": 125,
      "§": 126,
      "¨": 127,
      "©": 128,
      "ª": 129,
      "«": 130,
      "¬": 131,
      "­": 132,
      "®": 133,
      "¯": 134,
      "°": 135,
      "±": 136,
      "²": 137,
      "³": 138,
      "´": 139,
      "µ": 140,
      "¶": 141,
      "·": 142,
      "¸": 143,
      "¹": 144,
      "º": 145,
      "»": 146,
      "¼": 147,
      "½": 148,
      "¾": 149,
      "¿": 150,
      "À": 151,
      "Á": 152,
      "Â": 153,
      "Ã": 154,
      "Ä": 155,
      "Å": 156,
      "Æ": 157,
      "Ç": 158,
      "È": 159,
      "É": 160,
      "Ê": 161,
      "Ë": 162,
      "Ì": 163,
      "Í": 164,
      "Î": 165,
      "Ï": 166,
      "Ð": 167,
      "Ñ": 168,
      "Ò": 169,
      "Ó": 170,
      "Ô": 171,
      "Õ": 172,
      "Ö": 173,
      "×": 174,
      "Ø": 175,
      "Ú": 176,
      "Û": 177,
      "Ü": 178,
      "Ý": 179,
      "Þ": 180,
      "ß": 181,
      "à": 182,
      "á": 183,
      "â": 184,
      "ã": 185,
      "ä": 186,
      "å": 187,
      "æ": 188,
      "ç": 189,
      "è": 190,
      "é": 191,
      "ê": 192,
      "ë": 193,
      "ì": 194,
      "í": 195,
      "î": 196,
      "ï": 197,
      "ð": 198,
      "ñ": 199,
      "ò": 200,
      "ó": 201,
      "ô": 202,
      "õ": 203,
      "ö": 204,
      "÷": 205,
      "ø": 206,
      "ù": 207,
      "ú": 208,
      "û": 209,
      "ü": 210,
      "ý": 211,
      "þ": 212,
      "ÿ": 213,
      "Ā": 214,
      "ā": 215,
      "Ă": 216,
      "ă": 217,
      "ą": 218,
      "Ć": 219,
      "ć": 220,
      "ĉ": 221,
      "ċ": 222,
      "Č": 223,
      "č": 224,
      "Ď": 225,
      "ď": 226,
      "Đ": 227,
      "đ": 228,
      "Ē": 229,
      "ē": 230,
      "ĕ": 231,
      "ė": 232,
      "ę": 233,
      "ě": 234,
      "Ĝ": 235,
      "ĝ": 236,
      "Ğ": 237,
      "ğ": 238,
      "ġ": 239,
      "Ģ": 240,
      "ĥ": 241,
      "Ħ": 242,
      "ħ": 243,
      "ĩ": 244,
      "Ī": 245,
      "ī": 246,
      "ĭ": 247,
      "į": 248,
      "İ": 249,
      "ı": 250,
      "ĵ": 251,
      "ķ": 252,
      "ļ": 253,
      "ľ": 254,
      "Ł": 255,
      "ł": 256,
      "ń": 257,
      "ņ": 258,
      "ň": 259,
      "ŋ": 260,
      "Ō": 261,
      "ō": 262,
      "ŏ": 263,
      "ő": 264,
      "Œ": 265,
      "œ": 266,
      "Ř": 267,
      "ř": 268,
      "Ś": 269,
      "ś": 270,
      "Ŝ": 271,
      "Ş": 272,
      "ş": 273,
      "Š": 274,
      "š": 275,
      "Ţ": 276,
      "ţ": 277,
      "Ť": 278,
      "ť": 279,
      "Ŧ": 280,
      "ŧ": 281,
      "ũ": 282,
      "Ū": 283,
      "ū": 284,
      "ŭ": 285,
      "ů": 286,
      "ű": 287,
      "ų": 288,
      "ŵ": 289,
      "ŷ": 290,
      "Ÿ": 291,
      "Ź": 292,
      "ź": 293,
      "Ż": 294,
      "ż": 295,
      "Ž": 296,
      "ž": 297,
      "ſ": 298,
      "ƀ": 299,
      "Ɔ": 300,
      "Ɗ": 301,
      "Ɛ": 302,
      "ƒ": 303,
      "ơ": 304,
      "ƣ": 305,
      "Ƨ": 306,
      "ư": 307,
      "ǃ": 308,
      "Ǉ": 309,
      "ǈ": 310,
      "ǉ": 311,
      "ǎ": 312,
      "ǐ": 313,
      "ǒ": 314,
      "ǔ": 315,
      "ǚ": 316,
      "ǜ": 317,
      "ǝ": 318,
      "ǣ": 319,
      "ǥ": 320,
      "ǧ": 321,
      "ǫ": 322,
      "ǰ": 323,
      "ǵ": 324,
      "Ƕ": 325,
      "ȇ": 326,
      "Ȋ": 327,
      "Ȓ": 328,
      "ȓ": 329,
      "Ș": 330,
      "ș": 331,
      "Ț": 332,
      "ț": 333,
      "ɂ": 334,
      "Ƀ": 335,
      "ɐ": 336,
      "ɑ": 337,
      "ɒ": 338,
      "ɓ": 339,
      "ɔ": 340,
      "ɕ": 341,
      "ɖ": 342,
      "ɗ": 343,
      "ə": 344,
      "ɚ": 345,
      "ɛ": 346,
      "ɜ": 347,
      "ɝ": 348,
      "ɟ": 349,
      "ɡ": 350,
      "ɢ": 351,
      "ɣ": 352,
      "ɥ": 353,
      "ɦ": 354,
      "ɨ": 355,
      "ɪ": 356,
      "ɫ": 357,
      "ɬ": 358,
      "ɯ": 359,
      "ɳ": 360,
      "ɴ": 361,
      "ɹ": 362,
      "ɽ": 363,
      "ɾ": 364,
      "ʀ": 365,
      "ʁ": 366,
      "ʂ": 367,
      "ʃ": 368,
      "ʇ": 369,
      "ʊ": 370,
      "ʋ": 371,
      "ʌ": 372,
      "ʍ": 373,
      "ʎ": 374,
      "ʏ": 375,
      "ʐ": 376,
      "ʒ": 377,
      "ʔ": 378,
      "ʕ": 379,
      "ʖ": 380,
      "ʘ": 381,
      "ʙ": 382,
      "ʜ": 383,
      "ʝ": 384,
      "ʟ": 385,
      "ʠ": 386,
      "ʰ": 387,
      "ʱ": 388,
      "ʲ": 389,
      "ʶ": 390,
      "ʷ": 391,
      "ʹ": 392,
      "ʻ": 393,
      "ʼ": 394,
      "ʽ": 395,
      "ʾ": 396,
      "ʿ": 397,
      "ˀ": 398,
      "˂": 399,
      "ˆ": 400,
      "ˈ": 401,
      "ˊ": 402,
      "ˋ": 403,
      "ˌ": 404,
      "ː": 405,
      "ˑ": 406,
      "˙": 407,
      "˚": 408,
      "˜": 409,
      "ˢ": 410,
      "ˣ": 411,
      "ˤ": 412,
      "˥": 413,
      "˦": 414,
      "˧": 415,
      "˨": 416,
      "˩": 417,
      "ˮ": 418,
      "̀": 419,
      "́": 420,
      "̂": 421,
      "̃": 422,
      "̄": 423,
      "̅": 424,
      "̇": 425,
      "̈": 426,
      "̊": 427,
      "̌": 428,
      "̍": 429,
      "̐": 430,
      "̑": 431,
      "̕": 432,
      "̖": 433,
      "̗": 434,
      "̘": 435,
      "̙": 436,
      "̚": 437,
      "̛": 438,
      "̜": 439,
      "̝": 440,
      "̞": 441,
      "̟": 442,
      "̠": 443,
      "̡": 444,
      "̢": 445,
      "̣": 446,
      "̤": 447,
      "̥": 448,
      "̦": 449,
      "̧": 450,
      "̨": 451,
      "̩": 452,
      "̪": 453,
      "̫": 454,
      "̬": 455,
      "̭": 456,
      "̮": 457,
      "̯": 458,
      "̰": 459,
      "̱": 460,
      "̲": 461,
      "̳": 462,
      "̴": 463,
      "̵": 464,
      "̶": 465,
      "̷": 466,
      "̸": 467,
      "̹": 468,
      "̺": 469,
      "̻": 470,
      "̼": 471,
      "̀": 472,
      "́": 473,
      "͂": 474,
      "̈́": 475,
      "ͅ": 476,
      "͇": 477,
      "͈": 478,
      "͉": 479,
      "͍": 480,
      "͎": 481,
      "͓": 482,
      "͔": 483,
      "͕": 484,
      "͖": 485,
      "͘": 486,
      "͙": 487,
      "͚": 488,
      "͜": 489,
      "͝": 490,
      "͞": 491,
      "͟": 492,
      "͠": 493,
      "͡": 494,
      "͢": 495,
      "΄": 496,
      "Ά": 497,
      "Έ": 498,
      "Ή": 499,
      "Ό": 500,
      "Α": 501,
      "Β": 502,
      "Γ": 503,
      "Δ": 504,
      "Ε": 505,
      "Ζ": 506,
      "Η": 507,
      "Θ": 508,
      "Ι": 509,
      "Κ": 510,
      "Λ": 511,
      "Μ": 512,
      "Ν": 513,
      "Ξ": 514,
      "Ο": 515,
      "Π": 516,
      "Ρ": 517,
      "Σ": 518,
      "Τ": 519,
      "Υ": 520,
      "Φ": 521,
      "Χ": 522,
      "Ψ": 523,
      "Ω": 524,
      "ά": 525,
      "έ": 526,
      "ή": 527,
      "ί": 528,
      "α": 529,
      "β": 530,
      "γ": 531,
      "δ": 532,
      "ε": 533,
      "ζ": 534,
      "η": 535,
      "θ": 536,
      "ι": 537,
      "κ": 538,
      "λ": 539,
      "μ": 540,
      "ν": 541,
      "ξ": 542,
      "ο": 543,
      "π": 544,
      "ρ": 545,
      "ς": 546,
      "σ": 547,
      "τ": 548,
      "υ": 549,
      "φ": 550,
      "χ": 551,
      "ψ": 552,
      "ω": 553,
      "ϊ": 554,
      "ό": 555,
      "ύ": 556,
      "ώ": 557,
      "ϑ": 558,
      "ϕ": 559,
      "Ϝ": 560,
      "ϝ": 561,
      "Ϣ": 562,
      "Ϭ": 563,
      "ϵ": 564,
      "І": 565,
      "Ј": 566,
      "А": 567,
      "Б": 568,
      "В": 569,
      "Г": 570,
      "Д": 571,
      "Е": 572,
      "Ж": 573,
      "З": 574,
      "И": 575,
      "К": 576,
      "Л": 577,
      "М": 578,
      "Н": 579,
      "О": 580,
      "П": 581,
      "Р": 582,
      "С": 583,
      "Т": 584,
      "У": 585,
      "Ф": 586,
      "Х": 587,
      "Ц": 588,
      "Ч": 589,
      "Ш": 590,
      "Щ": 591,
      "Э": 592,
      "Ю": 593,
      "Я": 594,
      "а": 595,
      "б": 596,
      "в": 597,
      "г": 598,
      "д": 599,
      "е": 600,
      "ж": 601,
      "з": 602,
      "и": 603,
      "й": 604,
      "к": 605,
      "л": 606,
      "м": 607,
      "н": 608,
      "о": 609,
      "п": 610,
      "р": 611,
      "с": 612,
      "т": 613,
      "у": 614,
      "ф": 615,
      "х": 616,
      "ц": 617,
      "ч": 618,
      "ш": 619,
      "щ": 620,
      "ъ": 621,
      "ы": 622,
      "ь": 623,
      "э": 624,
      "ю": 625,
      "я": 626,
      "ё": 627,
      "ђ": 628,
      "є": 629,
      "ѕ": 630,
      "і": 631,
      "ї": 632,
      "ј": 633,
      "ў": 634,
      "џ": 635,
      "Ѽ": 636,
      "ғ": 637,
      "қ": 638,
      "ҡ": 639,
      "ү": 640,
      "ҳ": 641,
      "ҷ": 642,
      "ӑ": 643,
      "ӕ": 644,
      "ә": 645,
      "Ӡ": 646,
      "ӣ": 647,
      "Ӧ": 648,
      "ӧ": 649,
      "Ө": 650,
      "ө": 651,
      "Ӵ": 652,
      "ԛ": 653,
      "Ա": 654,
      "Լ": 655,
      "Խ": 656,
      "Ղ": 657,
      "Մ": 658,
      "Ն": 659,
      "ՠ": 660,
      "ա": 661,
      "բ": 662,
      "գ": 663,
      "ե": 664,
      "թ": 665,
      "ի": 666,
      "լ": 667,
      "խ": 668,
      "կ": 669,
      "հ": 670,
      "ղ": 671,
      "մ": 672,
      "յ": 673,
      "ն": 674,
      "ո": 675,
      "ռ": 676,
      "ս": 677,
      "ր": 678,
      "ց": 679,
      "ւ": 680,
      "ք": 681,
      "֛": 682,
      "֤": 683,
      "֫": 684,
      "֭": 685,
      "ְ": 686,
      "ֳ": 687,
      "ִ": 688,
      "ֵ": 689,
      "ֶ": 690,
      "ַ": 691,
      "ָ": 692,
      "ֹ": 693,
      "ֻ": 694,
      "ּ": 695,
      "־": 696,
      "ֿ": 697,
      "ׁ": 698,
      "׃": 699,
      "א": 700,
      "ב": 701,
      "ג": 702,
      "ד": 703,
      "ה": 704,
      "ו": 705,
      "ז": 706,
      "ח": 707,
      "ט": 708,
      "י": 709,
      "ך": 710,
      "כ": 711,
      "ל": 712,
      "ם": 713,
      "מ": 714,
      "ן": 715,
      "נ": 716,
      "ס": 717,
      "ע": 718,
      "ף": 719,
      "פ": 720,
      "צ": 721,
      "ק": 722,
      "ר": 723,
      "ש": 724,
      "ת": 725,
      "ײ": 726,
      "״": 727,
      "،": 728,
      "؛": 729,
      "؟": 730,
      "ء": 731,
      "آ": 732,
      "أ": 733,
      "ؤ": 734,
      "إ": 735,
      "ئ": 736,
      "ا": 737,
      "ب": 738,
      "ة": 739,
      "ت": 740,
      "ث": 741,
      "ج": 742,
      "ح": 743,
      "خ": 744,
      "د": 745,
      "ذ": 746,
      "ر": 747,
      "ز": 748,
      "س": 749,
      "ش": 750,
      "ص": 751,
      "ض": 752,
      "ط": 753,
      "ظ": 754,
      "ع": 755,
      "غ": 756,
      "ـ": 757,
      "ف": 758,
      "ق": 759,
      "ك": 760,
      "ل": 761,
      "م": 762,
      "ن": 763,
      "ه": 764,
      "و": 765,
      "ى": 766,
      "ي": 767,
      "ً": 768,
      "ٌ": 769,
      "ٍ": 770,
      "َ": 771,
      "ُ": 772,
      "ِ": 773,
      "ّ": 774,
      "ْ": 775,
      "ٔ": 776,
      "١": 777,
      "٩": 778,
      "٪": 779,
      "ٰ": 780,
      "ٱ": 781,
      "ٹ": 782,
      "پ": 783,
      "چ": 784,
      "ڌ": 785,
      "ڏ": 786,
      "ڑ": 787,
      "ژ": 788,
      "ښ": 789,
      "ک": 790,
      "گ": 791,
      "ھ": 792,
      "ہ": 793,
      "ی": 794,
      "ې": 795,
      "ے": 796,
      "ە": 797,
      "ۖ": 798,
      "ۗ": 799,
      "ۚ": 800,
      "۰": 801,
      "۱": 802,
      "۲": 803,
      "۳": 804,
      "۵": 805,
      "۶": 806,
      "ܐ": 807,
      "ܓ": 808,
      "ܙ": 809,
      "ܢ": 810,
      "ܥ": 811,
      "ܪ": 812,
      "ހ": 813,
      "ބ": 814,
      "އ": 815,
      "ވ": 816,
      "މ": 817,
      "ދ": 818,
      "ލ": 819,
      "ސ": 820,
      "ަ": 821,
      "ާ": 822,
      "ި": 823,
      "ީ": 824,
      "ު": 825,
      "ެ": 826,
      "ޯ": 827,
      "ް": 828,
      "ँ": 829,
      "ं": 830,
      "ः": 831,
      "अ": 832,
      "आ": 833,
      "इ": 834,
      "ई": 835,
      "उ": 836,
      "ए": 837,
      "ऐ": 838,
      "ओ": 839,
      "क": 840,
      "ख": 841,
      "ग": 842,
      "च": 843,
      "ज": 844,
      "झ": 845,
      "ञ": 846,
      "ट": 847,
      "ठ": 848,
      "ड": 849,
      "ण": 850,
      "त": 851,
      "थ": 852,
      "द": 853,
      "ध": 854,
      "न": 855,
      "प": 856,
      "फ": 857,
      "ब": 858,
      "भ": 859,
      "म": 860,
      "य": 861,
      "र": 862,
      "ल": 863,
      "ळ": 864,
      "व": 865,
      "श": 866,
      "ष": 867,
      "स": 868,
      "ह": 869,
      "़": 870,
      "ा": 871,
      "ि": 872,
      "ी": 873,
      "ु": 874,
      "ू": 875,
      "ृ": 876,
      "ॆ": 877,
      "े": 878,
      "ै": 879,
      "ो": 880,
      "ौ": 881,
      "्": 882,
      "।": 883,
      "॥": 884,
      "१": 885,
      "३": 886,
      "ং": 887,
      "অ": 888,
      "আ": 889,
      "ই": 890,
      "উ": 891,
      "এ": 892,
      "ও": 893,
      "ক": 894,
      "খ": 895,
      "গ": 896,
      "চ": 897,
      "জ": 898,
      "ঞ": 899,
      "ঠ": 900,
      "ড": 901,
      "ণ": 902,
      "ত": 903,
      "থ": 904,
      "দ": 905,
      "ধ": 906,
      "ন": 907,
      "প": 908,
      "ব": 909,
      "ভ": 910,
      "ম": 911,
      "য": 912,
      "র": 913,
      "ল": 914,
      "ষ": 915,
      "স": 916,
      "হ": 917,
      "়": 918,
      "া": 919,
      "ি": 920,
      "ী": 921,
      "ু": 922,
      "ে": 923,
      "ো": 924,
      "ৌ": 925,
      "্": 926,
      "ৰ": 927,
      "ৱ": 928,
      "৷": 929,
      "ਂ": 930,
      "ਈ": 931,
      "ਕ": 932,
      "ਖ": 933,
      "ਗ": 934,
      "ਜ": 935,
      "ਡ": 936,
      "ਢ": 937,
      "ਤ": 938,
      "ਦ": 939,
      "ਨ": 940,
      "ਪ": 941,
      "ਬ": 942,
      "ਮ": 943,
      "ਰ": 944,
      "ਲ": 945,
      "ਸ": 946,
      "ਾ": 947,
      "ਿ": 948,
      "ੀ": 949,
      "ੇ": 950,
      "ੈ": 951,
      "ੋ": 952,
      "ੰ": 953,
      "ગ": 954,
      "જ": 955,
      "ત": 956,
      "ભ": 957,
      "ર": 958,
      "લ": 959,
      "ષ": 960,
      "સ": 961,
      "ા": 962,
      "ી": 963,
      "ુ": 964,
      "ે": 965,
      "ો": 966,
      "ଂ": 967,
      "କ": 968,
      "ଣ": 969,
      "ତ": 970,
      "ଥ": 971,
      "ଧ": 972,
      "ନ": 973,
      "ପ": 974,
      "ର": 975,
      "ସ": 976,
      "ା": 977,
      "ି": 978,
      "୍": 979,
      "ୟ": 980,
      "அ": 981,
      "க": 982,
      "ச": 983,
      "ட": 984,
      "த": 985,
      "ந": 986,
      "ன": 987,
      "ப": 988,
      "ம": 989,
      "ய": 990,
      "ர": 991,
      "ற": 992,
      "ல": 993,
      "ள": 994,
      "ழ": 995,
      "வ": 996,
      "ஸ": 997,
      "ா": 998,
      "ி": 999,
      "ு": 1000,
      "ூ": 1001,
      "ெ": 1002,
      "ே": 1003,
      "ை": 1004,
      "ொ": 1005,
      "ோ": 1006,
      "்": 1007,
      "గ": 1008,
      "ల": 1009,
      "వ": 1010,
      "స": 1011,
      "ా": 1012,
      "ె": 1013,
      "ో": 1014,
      "్": 1015,
      "ಅ": 1016,
      "ಕ": 1017,
      "ಗ": 1018,
      "ಚ": 1019,
      "ಜ": 1020,
      "ಞ": 1021,
      "ಠ": 1022,
      "ಡ": 1023,
      "ತ": 1024,
      "ಥ": 1025,
      "ಧ": 1026,
      "ನ": 1027,
      "ಪ": 1028,
      "ಭ": 1029,
      "ಮ": 1030,
      "ಯ": 1031,
      "ರ": 1032,
      "ಲ": 1033,
      "ವ": 1034,
      "ಶ": 1035,
      "ಷ": 1036,
      "ಸ": 1037,
      "ಾ": 1038,
      "ಿ": 1039,
      "ೀ": 1040,
      "ೆ": 1041,
      "ೇ": 1042,
      "ೊ": 1043,
      "ೋ": 1044,
      "್": 1045,
      "ം": 1046,
      "അ": 1047,
      "ക": 1048,
      "ഗ": 1049,
      "ജ": 1050,
      "ട": 1051,
      "ണ": 1052,
      "ത": 1053,
      "ന": 1054,
      "പ": 1055,
      "ഭ": 1056,
      "മ": 1057,
      "യ": 1058,
      "ല": 1059,
      "ള": 1060,
      "വ": 1061,
      "ഷ": 1062,
      "സ": 1063,
      "ാ": 1064,
      "ി": 1065,
      "ു": 1066,
      "ൂ": 1067,
      "െ": 1068,
      "ോ": 1069,
      "്": 1070,
      "ං": 1071,
      "ග": 1072,
      "ච": 1073,
      "ප": 1074,
      "ම": 1075,
      "ර": 1076,
      "ල": 1077,
      "ස": 1078,
      "හ": 1079,
      "්": 1080,
      "ා": 1081,
      "ි": 1082,
      "ෙ": 1083,
      "ෝ": 1084,
      "ก": 1085,
      "ข": 1086,
      "ค": 1087,
      "ฆ": 1088,
      "ง": 1089,
      "จ": 1090,
      "ฉ": 1091,
      "ช": 1092,
      "ซ": 1093,
      "ญ": 1094,
      "ฏ": 1095,
      "ฐ": 1096,
      "ฑ": 1097,
      "ฒ": 1098,
      "ณ": 1099,
      "ด": 1100,
      "ต": 1101,
      "ถ": 1102,
      "ท": 1103,
      "ธ": 1104,
      "น": 1105,
      "บ": 1106,
      "ป": 1107,
      "ผ": 1108,
      "ฝ": 1109,
      "พ": 1110,
      "ฟ": 1111,
      "ภ": 1112,
      "ม": 1113,
      "ย": 1114,
      "ร": 1115,
      "ฤ": 1116,
      "ล": 1117,
      "ว": 1118,
      "ศ": 1119,
      "ษ": 1120,
      "ส": 1121,
      "ห": 1122,
      "อ": 1123,
      "ฯ": 1124,
      "ะ": 1125,
      "ั": 1126,
      "า": 1127,
      "ำ": 1128,
      "ิ": 1129,
      "ี": 1130,
      "ึ": 1131,
      "ื": 1132,
      "ุ": 1133,
      "ู": 1134,
      "฿": 1135,
      "เ": 1136,
      "แ": 1137,
      "โ": 1138,
      "ใ": 1139,
      "ไ": 1140,
      "ๆ": 1141,
      "็": 1142,
      "่": 1143,
      "้": 1144,
      "๊": 1145,
      "๋": 1146,
      "์": 1147,
      "๑": 1148,
      "๓": 1149,
      "๔": 1150,
      "๕": 1151,
      "๙": 1152,
      "ຊ": 1153,
      "ດ": 1154,
      "ຕ": 1155,
      "ທ": 1156,
      "ນ": 1157,
      "ປ": 1158,
      "ພ": 1159,
      "ລ": 1160,
      "ວ": 1161,
      "ສ": 1162,
      "ະ": 1163,
      "ັ": 1164,
      "າ": 1165,
      "ິ": 1166,
      "ົ": 1167,
      "ເ": 1168,
      "ໄ": 1169,
      "་": 1170,
      "༼": 1171,
      "༽": 1172,
      "ག": 1173,
      "ཆ": 1174,
      "ཇ": 1175,
      "ད": 1176,
      "ན": 1177,
      "པ": 1178,
      "ཕ": 1179,
      "བ": 1180,
      "འ": 1181,
      "ལ": 1182,
      "ས": 1183,
      "ུ": 1184,
      "ེ": 1185,
      "ོ": 1186,
      "ྐ": 1187,
      "န": 1188,
      "ဘ": 1189,
      "မ": 1190,
      "သ": 1191,
      "ာ": 1192,
      "်": 1193,
      "ြ": 1194,
      "ა": 1195,
      "ბ": 1196,
      "გ": 1197,
      "დ": 1198,
      "ე": 1199,
      "ვ": 1200,
      "ზ": 1201,
      "თ": 1202,
      "ი": 1203,
      "კ": 1204,
      "ლ": 1205,
      "მ": 1206,
      "ნ": 1207,
      "ო": 1208,
      "რ": 1209,
      "ს": 1210,
      "ტ": 1211,
      "უ": 1212,
      "ფ": 1213,
      "ქ": 1214,
      "ღ": 1215,
      "შ": 1216,
      "ჩ": 1217,
      "ც": 1218,
      "ძ": 1219,
      "ჭ": 1220,
      "ხ": 1221,
      "ჯ": 1222,
      "ჰ": 1223,
      "ለ": 1224,
      "ላ": 1225,
      "ል": 1226,
      "ሐ": 1227,
      "መ": 1228,
      "ማ": 1229,
      "ም": 1230,
      "ር": 1231,
      "ሱ": 1232,
      "ስ": 1233,
      "ቋ": 1234,
      "ብ": 1235,
      "ት": 1236,
      "ና": 1237,
      "ን": 1238,
      "ኛ": 1239,
      "አ": 1240,
      "ኢ": 1241,
      "የ": 1242,
      "ያ": 1243,
      "ድ": 1244,
      "ጅ": 1245,
      "ጎ": 1246,
      "ጥ": 1247,
      "፭": 1248,
      "Ꮎ": 1249,
      "Ꮟ": 1250,
      "Ꮤ": 1251,
      "ᐃ": 1252,
      "ᐅ": 1253,
      "ᐊ": 1254,
      "ᐖ": 1255,
      "ᐛ": 1256,
      "ᑎ": 1257,
      "ᑐ": 1258,
      "ᑕ": 1259,
      "ᑦ": 1260,
      "ᑰ": 1261,
      "ᒃ": 1262,
      "ᒋ": 1263,
      "ᒪ": 1264,
      "ᒻ": 1265,
      "ᓂ": 1266,
      "ᓄ": 1267,
      "ᓇ": 1268,
      "ᓕ": 1269,
      "ᓯ": 1270,
      "ᓴ": 1271,
      "ᔉ": 1272,
      "ᔊ": 1273,
      "ᔵ": 1274,
      "ᔺ": 1275,
      "ᕆ": 1276,
      "ᕈ": 1277,
      "ᕋ": 1278,
      "ᕐ": 1279,
      "ᖄ": 1280,
      "ᖅ": 1281,
      "ᖏ": 1282,
      "ᗜ": 1283,
      "ᙠ": 1284,
      "ᚱ": 1285,
      "ᚾ": 1286,
      "ᛁ": 1287,
      "ᛗ": 1288,
      "ᛚ": 1289,
      "ᛟ": 1290,
      "ណ": 1291,
      "ទ": 1292,
      "ប": 1293,
      "រ": 1294,
      "វ": 1295,
      "ស": 1296,
      "ឡ": 1297,
      "ា": 1298,
      "ី": 1299,
      "ូ": 1300,
      "េ": 1301,
      "្": 1302,
      "ᴀ": 1303,
      "ᴄ": 1304,
      "ᴇ": 1305,
      "ᴉ": 1306,
      "ᴏ": 1307,
      "ᴘ": 1308,
      "ᴛ": 1309,
      "ᴠ": 1310,
      "ᴥ": 1311,
      "ᴳ": 1312,
      "ᴹ": 1313,
      "ᴼ": 1314,
      "ᵃ": 1315,
      "ᵇ": 1316,
      "ᵔ": 1317,
      "ᵗ": 1318,
      "ᶥ": 1319,
      "Ḍ": 1320,
      "ḍ": 1321,
      "Ḏ": 1322,
      "ḏ": 1323,
      "ḗ": 1324,
      "ḡ": 1325,
      "Ḥ": 1326,
      "ḥ": 1327,
      "ḫ": 1328,
      "ḱ": 1329,
      "ḳ": 1330,
      "Ḵ": 1331,
      "ḵ": 1332,
      "ḷ": 1333,
      "ṁ": 1334,
      "ṃ": 1335,
      "ṅ": 1336,
      "Ṇ": 1337,
      "ṇ": 1338,
      "ṉ": 1339,
      "ṓ": 1340,
      "Ṛ": 1341,
      "ṛ": 1342,
      "Ṣ": 1343,
      "ṣ": 1344,
      "Ṭ": 1345,
      "ṭ": 1346,
      "ṯ": 1347,
      "ṳ": 1348,
      "ẓ": 1349,
      "ạ": 1350,
      "ả": 1351,
      "ấ": 1352,
      "ầ": 1353,
      "ẩ": 1354,
      "ậ": 1355,
      "ắ": 1356,
      "ằ": 1357,
      "ặ": 1358,
      "ẹ": 1359,
      "ế": 1360,
      "ề": 1361,
      "ể": 1362,
      "ễ": 1363,
      "ệ": 1364,
      "ỉ": 1365,
      "ị": 1366,
      "Ọ": 1367,
      "ọ": 1368,
      "ỏ": 1369,
      "ố": 1370,
      "ồ": 1371,
      "ổ": 1372,
      "ộ": 1373,
      "ớ": 1374,
      "ờ": 1375,
      "ở": 1376,
      "ợ": 1377,
      "ụ": 1378,
      "ủ": 1379,
      "Ứ": 1380,
      "ứ": 1381,
      "ử": 1382,
      "ữ": 1383,
      "ự": 1384,
      "ỳ": 1385,
      "ỵ": 1386,
      "ἀ": 1387,
      "ἁ": 1388,
      "ἄ": 1389,
      "ἅ": 1390,
      "Ἀ": 1391,
      "Ἁ": 1392,
      "Ἄ": 1393,
      "ἐ": 1394,
      "ἑ": 1395,
      "ἔ": 1396,
      "Ἐ": 1397,
      "Ἑ": 1398,
      "ἠ": 1399,
      "ἡ": 1400,
      "ἢ": 1401,
      "ἤ": 1402,
      "ἥ": 1403,
      "ἦ": 1404,
      "ἰ": 1405,
      "ἱ": 1406,
      "ἴ": 1407,
      "ἵ": 1408,
      "ἶ": 1409,
      "Ἰ": 1410,
      "Ἱ": 1411,
      "ὀ": 1412,
      "ὁ": 1413,
      "ὄ": 1414,
      "ὅ": 1415,
      "ὐ": 1416,
      "ὑ": 1417,
      "ὕ": 1418,
      "ὥ": 1419,
      "ὧ": 1420,
      "Ὡ": 1421,
      "ὰ": 1422,
      "ά": 1423,
      "έ": 1424,
      "ὴ": 1425,
      "ή": 1426,
      "ὶ": 1427,
      "ί": 1428,
      "ὸ": 1429,
      "ό": 1430,
      "ὺ": 1431,
      "ύ": 1432,
      "ὼ": 1433,
      "ώ": 1434,
      "᾽": 1435,
      "ῃ": 1436,
      "ῆ": 1437,
      "ῇ": 1438,
      "ῖ": 1439,
      "ῥ": 1440,
      "ῦ": 1441,
      "ῧ": 1442,
      "ῳ": 1443,
      "ῶ": 1444,
      "ῷ": 1445,
      "​": 1446,
      "‌": 1447,
      "‍": 1448,
      "‎": 1449,
      "‏": 1450,
      "‐": 1451,
      "‑": 1452,
      "‒": 1453,
      "–": 1454,
      "—": 1455,
      "―": 1456,
      "‖": 1457,
      "‘": 1458,
      "’": 1459,
      "‚": 1460,
      "‛": 1461,
      "“": 1462,
      "”": 1463,
      "„": 1464,
      "‟": 1465,
      "†": 1466,
      "‡": 1467,
      "•": 1468,
      "‣": 1469,
      "․": 1470,
      "…": 1471,
      "‧": 1472,
      "‪": 1473,
      "‫": 1474,
      "‬": 1475,
      "‭": 1476,
      "‮": 1477,
      "‰": 1478,
      "′": 1479,
      "″": 1480,
      "‹": 1481,
      "›": 1482,
      "※": 1483,
      "‼": 1484,
      "‽": 1485,
      "‿": 1486,
      "⁂": 1487,
      "⁃": 1488,
      "⁄": 1489,
      "⁊": 1490,
      "⁠": 1491,
      "⁡": 1492,
      "⁢": 1493,
      "⁰": 1494,
      "⁴": 1495,
      "⁵": 1496,
      "⁶": 1497,
      "⁷": 1498,
      "⁸": 1499,
      "⁹": 1500,
      "⁻": 1501,
      "₁": 1502,
      "₂": 1503,
      "₤": 1504,
      "₩": 1505,
      "€": 1506,
      "₱": 1507,
      "₹": 1508,
      "⃣": 1509,
      "℃": 1510,
      "℅": 1511,
      "℉": 1512,
      "ℌ": 1513,
      "ℏ": 1514,
      "ℑ": 1515,
      "ℒ": 1516,
      "ℓ": 1517,
      "№": 1518,
      "℗": 1519,
      "℘": 1520,
      "ℜ": 1521,
      "℞": 1522,
      "℠": 1523,
      "™": 1524,
      "ℨ": 1525,
      "ℭ": 1526,
      "ℵ": 1527,
      "ℶ": 1528,
      "ℹ": 1529,
      "⅋": 1530,
      "⅓": 1531,
      "⅔": 1532,
      "⅕": 1533,
      "⅛": 1534,
      "⅜": 1535,
      "⅞": 1536,
      "←": 1537,
      "↑": 1538,
      "→": 1539,
      "↓": 1540,
      "↔": 1541,
      "↦": 1542,
      "↩": 1543,
      "⇄": 1544,
      "⇆": 1545,
      "⇌": 1546,
      "⇐": 1547,
      "⇒": 1548,
      "⇓": 1549,
      "⇚": 1550,
      "⇛": 1551,
      "⇧": 1552,
      "∀": 1553,
      "∂": 1554,
      "∃": 1555,
      "∄": 1556,
      "∅": 1557,
      "∆": 1558,
      "∇": 1559,
      "∈": 1560,
      "∏": 1561,
      "∑": 1562,
      "−": 1563,
      "∓": 1564,
      "∗": 1565,
      "∘": 1566,
      "√": 1567,
      "∝": 1568,
      "∞": 1569,
      "∣": 1570,
      "∥": 1571,
      "∦": 1572,
      "∧": 1573,
      "∨": 1574,
      "∩": 1575,
      "∪": 1576,
      "∫": 1577,
      "∮": 1578,
      "∴": 1579,
      "∶": 1580,
      "∷": 1581,
      "∼": 1582,
      "≃": 1583,
      "≅": 1584,
      "≈": 1585,
      "≜": 1586,
      "≠": 1587,
      "≡": 1588,
      "≤": 1589,
      "≥": 1590,
      "≦": 1591,
      "≪": 1592,
      "≫": 1593,
      "≻": 1594,
      "⊂": 1595,
      "⊃": 1596,
      "⊕": 1597,
      "⊗": 1598,
      "⊙": 1599,
      "⊥": 1600,
      "⋅": 1601,
      "⋆": 1602,
      "⋕": 1603,
      "⋮": 1604,
      "⋯": 1605,
      "⌐": 1606,
      "⌘": 1607,
      "⎇": 1608,
      "⎝": 1609,
      "⎠": 1610,
      "⎯": 1611,
      "⏟": 1612,
      "⏱": 1613,
      "␣": 1614,
      "①": 1615,
      "Ⓜ": 1616,
      "Ⓡ": 1617,
      "Ⓥ": 1618,
      "ⓒ": 1619,
      "ⓘ": 1620,
      "─": 1621,
      "━": 1622,
      "│": 1623,
      "┃": 1624,
      "┌": 1625,
      "┐": 1626,
      "└": 1627,
      "┕": 1628,
      "┘": 1629,
      "├": 1630,
      "┬": 1631,
      "┴": 1632,
      "┻": 1633,
      "┼": 1634,
      "═": 1635,
      "║": 1636,
      "╒": 1637,
      "╔": 1638,
      "╕": 1639,
      "╗": 1640,
      "╚": 1641,
      "╜": 1642,
      "╝": 1643,
      "╠": 1644,
      "╣": 1645,
      "╦": 1646,
      "╨": 1647,
      "╩": 1648,
      "╬": 1649,
      "╭": 1650,
      "╮": 1651,
      "╯": 1652,
      "╰": 1653,
      "╱": 1654,
      "╲": 1655,
      "╳": 1656,
      "╹": 1657,
      "▀": 1658,
      "▄": 1659,
      "█": 1660,
      "▋": 1661,
      "▌": 1662,
      "▐": 1663,
      "░": 1664,
      "▒": 1665,
      "▓": 1666,
      "■": 1667,
      "□": 1668,
      "▢": 1669,
      "▣": 1670,
      "▪": 1671,
      "▬": 1672,
      "▲": 1673,
      "△": 1674,
      "▶": 1675,
      "▸": 1676,
      "►": 1677,
      "▼": 1678,
      "▾": 1679,
      "◂": 1680,
      "◄": 1681,
      "◆": 1682,
      "◇": 1683,
      "◉": 1684,
      "◊": 1685,
      "○": 1686,
      "◎": 1687,
      "●": 1688,
      "◔": 1689,
      "◕": 1690,
      "◡": 1691,
      "◥": 1692,
      "◦": 1693,
      "◻": 1694,
      "◼": 1695,
      "◾": 1696,
      "☀": 1697,
      "☁": 1698,
      "☃": 1699,
      "★": 1700,
      "☆": 1701,
      "☉": 1702,
      "☐": 1703,
      "☑": 1704,
      "☒": 1705,
      "☔": 1706,
      "☕": 1707,
      "☘": 1708,
      "☙": 1709,
      "☛": 1710,
      "☝": 1711,
      "☠": 1712,
      "☤": 1713,
      "☯": 1714,
      "☰": 1715,
      "☲": 1716,
      "☵": 1717,
      "☷": 1718,
      "☹": 1719,
      "☺": 1720,
      "☼": 1721,
      "☽": 1722,
      "♀": 1723,
      "♂": 1724,
      "♏": 1725,
      "♔": 1726,
      "♕": 1727,
      "♛": 1728,
      "♞": 1729,
      "♠": 1730,
      "♡": 1731,
      "♣": 1732,
      "♥": 1733,
      "♦": 1734,
      "♪": 1735,
      "♫": 1736,
      "♭": 1737,
      "♯": 1738,
      "⚐": 1739,
      "⚓": 1740,
      "⚔": 1741,
      "⚖": 1742,
      "⚗": 1743,
      "⚙": 1744,
      "⚛": 1745,
      "⚠": 1746,
      "⚡": 1747,
      "⚥": 1748,
      "⚪": 1749,
      "⚽": 1750,
      "⛽": 1751,
      "✂": 1752,
      "✅": 1753,
      "✈": 1754,
      "✉": 1755,
      "✊": 1756,
      "✋": 1757,
      "✌": 1758,
      "✍": 1759,
      "✎": 1760,
      "✏": 1761,
      "✓": 1762,
      "✔": 1763,
      "✕": 1764,
      "✖": 1765,
      "✘": 1766,
      "✧": 1767,
      "✨": 1768,
      "✪": 1769,
      "✮": 1770,
      "✯": 1771,
      "✱": 1772,
      "✿": 1773,
      "❄": 1774,
      "❋": 1775,
      "❌": 1776,
      "❍": 1777,
      "❎": 1778,
      "❝": 1779,
      "❞": 1780,
      "❤": 1781,
      "❦": 1782,
      "❧": 1783,
      "❮": 1784,
      "❯": 1785,
      "➙": 1786,
      "➜": 1787,
      "➡": 1788,
      "➤": 1789,
      "➫": 1790,
      "➯": 1791,
      "⟨": 1792,
      "⟩": 1793,
      "⟶": 1794,
      "⟹": 1795,
      "⟺": 1796,
      "⠀": 1797,
      "⦁": 1798,
      "⬇": 1799,
      "⭐": 1800,
      "ⲁ": 1801,
      "ⲏ": 1802,
      "Ⲑ": 1803,
      "ⲑ": 1804,
      "ⲓ": 1805,
      "ⲙ": 1806,
      "ⲛ": 1807,
      "ⲟ": 1808,
      "ⲥ": 1809,
      "ⲧ": 1810,
      "ⲩ": 1811,
      "Ⲭ": 1812,
      "ⲱ": 1813,
      "ⴰ": 1814,
      "ⴱ": 1815,
      "ⴻ": 1816,
      "ⵄ": 1817,
      "ⵉ": 1818,
      "ⵍ": 1819,
      "ⵎ": 1820,
      "ⵏ": 1821,
      "ⵓ": 1822,
      "ⵙ": 1823,
      "ⵜ": 1824,
      "ⵟ": 1825,
      "ⵡ": 1826,
      "⸢": 1827,
      "⸣": 1828,
      "⸮": 1829,
      "、": 1830,
      "。": 1831,
      "々": 1832,
      "〇": 1833,
      "〈": 1834,
      "〉": 1835,
      "《": 1836,
      "》": 1837,
      "「": 1838,
      "」": 1839,
      "『": 1840,
      "』": 1841,
      "【": 1842,
      "】": 1843,
      "〒": 1844,
      "〜": 1845,
      "ぁ": 1846,
      "あ": 1847,
      "い": 1848,
      "ぅ": 1849,
      "う": 1850,
      "ぇ": 1851,
      "え": 1852,
      "お": 1853,
      "か": 1854,
      "が": 1855,
      "き": 1856,
      "ぎ": 1857,
      "く": 1858,
      "ぐ": 1859,
      "け": 1860,
      "げ": 1861,
      "こ": 1862,
      "ご": 1863,
      "さ": 1864,
      "ざ": 1865,
      "し": 1866,
      "じ": 1867,
      "す": 1868,
      "ず": 1869,
      "せ": 1870,
      "ぜ": 1871,
      "そ": 1872,
      "ぞ": 1873,
      "た": 1874,
      "だ": 1875,
      "ち": 1876,
      "ぢ": 1877,
      "っ": 1878,
      "つ": 1879,
      "づ": 1880,
      "て": 1881,
      "で": 1882,
      "と": 1883,
      "ど": 1884,
      "な": 1885,
      "に": 1886,
      "ぬ": 1887,
      "ね": 1888,
      "の": 1889,
      "は": 1890,
      "ば": 1891,
      "ぱ": 1892,
      "ひ": 1893,
      "び": 1894,
      "ぴ": 1895,
      "ふ": 1896,
      "ぶ": 1897,
      "ぷ": 1898,
      "へ": 1899,
      "べ": 1900,
      "ほ": 1901,
      "ぼ": 1902,
      "ぽ": 1903,
      "ま": 1904,
      "み": 1905,
      "む": 1906,
      "め": 1907,
      "も": 1908,
      "ゃ": 1909,
      "や": 1910,
      "ゅ": 1911,
      "ゆ": 1912,
      "ょ": 1913,
      "よ": 1914,
      "ら": 1915,
      "り": 1916,
      "る": 1917,
      "れ": 1918,
      "ろ": 1919,
      "わ": 1920,
      "を": 1921,
      "ん": 1922,
      "゜": 1923,
      "ゞ": 1924,
      "ァ": 1925,
      "ア": 1926,
      "ィ": 1927,
      "イ": 1928,
      "ゥ": 1929,
      "ウ": 1930,
      "ェ": 1931,
      "エ": 1932,
      "ォ": 1933,
      "オ": 1934,
      "カ": 1935,
      "ガ": 1936,
      "キ": 1937,
      "ギ": 1938,
      "ク": 1939,
      "グ": 1940,
      "ケ": 1941,
      "ゲ": 1942,
      "コ": 1943,
      "ゴ": 1944,
      "サ": 1945,
      "ザ": 1946,
      "シ": 1947,
      "ジ": 1948,
      "ス": 1949,
      "ズ": 1950,
      "セ": 1951,
      "ゼ": 1952,
      "ソ": 1953,
      "ゾ": 1954,
      "タ": 1955,
      "ダ": 1956,
      "チ": 1957,
      "ヂ": 1958,
      "ッ": 1959,
      "ツ": 1960,
      "テ": 1961,
      "デ": 1962,
      "ト": 1963,
      "ド": 1964,
      "ナ": 1965,
      "ニ": 1966,
      "ヌ": 1967,
      "ネ": 1968,
      "ノ": 1969,
      "ハ": 1970,
      "バ": 1971,
      "パ": 1972,
      "ヒ": 1973,
      "ビ": 1974,
      "ピ": 1975,
      "フ": 1976,
      "ブ": 1977,
      "プ": 1978,
      "ヘ": 1979,
      "ベ": 1980,
      "ペ": 1981,
      "ホ": 1982,
      "ボ": 1983,
      "ポ": 1984,
      "マ": 1985,
      "ミ": 1986,
      "ム": 1987,
      "メ": 1988,
      "モ": 1989,
      "ャ": 1990,
      "ヤ": 1991,
      "ュ": 1992,
      "ユ": 1993,
      "ョ": 1994,
      "ヨ": 1995,
      "ラ": 1996,
      "リ": 1997,
      "ル": 1998,
      "レ": 1999,
      "ロ": 2000,
      "ヮ": 2001,
      "ワ": 2002,
      "ヲ": 2003,
      "ン": 2004,
      "ヴ": 2005,
      "ヶ": 2006,
      "・": 2007,
      "ー": 2008,
      "ヽ": 2009,
      "ㄱ": 2010,
      "ㄹ": 2011,
      "ㅇ": 2012,
      "ㅋ": 2013,
      "ㅜ": 2014,
      "ㅠ": 2015,
      "ㅡ": 2016,
      "㎡": 2017,
      "一": 2018,
      "丁": 2019,
      "七": 2020,
      "万": 2021,
      "丈": 2022,
      "三": 2023,
      "上": 2024,
      "下": 2025,
      "不": 2026,
      "与": 2027,
      "且": 2028,
      "世": 2029,
      "丘": 2030,
      "业": 2031,
      "丛": 2032,
      "东": 2033,
      "丝": 2034,
      "丟": 2035,
      "両": 2036,
      "两": 2037,
      "严": 2038,
      "並": 2039,
      "个": 2040,
      "中": 2041,
      "丰": 2042,
      "临": 2043,
      "丸": 2044,
      "为": 2045,
      "主": 2046,
      "丽": 2047,
      "举": 2048,
      "乃": 2049,
      "久": 2050,
      "么": 2051,
      "义": 2052,
      "之": 2053,
      "乎": 2054,
      "乐": 2055,
      "乔": 2056,
      "乗": 2057,
      "乙": 2058,
      "九": 2059,
      "也": 2060,
      "书": 2061,
      "乱": 2062,
      "乳": 2063,
      "乾": 2064,
      "亀": 2065,
      "亂": 2066,
      "了": 2067,
      "予": 2068,
      "争": 2069,
      "事": 2070,
      "二": 2071,
      "于": 2072,
      "亐": 2073,
      "云": 2074,
      "互": 2075,
      "五": 2076,
      "井": 2077,
      "亚": 2078,
      "些": 2079,
      "亜": 2080,
      "亞": 2081,
      "亡": 2082,
      "交": 2083,
      "享": 2084,
      "京": 2085,
      "亭": 2086,
      "亮": 2087,
      "亲": 2088,
      "人": 2089,
      "亻": 2090,
      "亿": 2091,
      "什": 2092,
      "仁": 2093,
      "仆": 2094,
      "今": 2095,
      "介": 2096,
      "从": 2097,
      "仕": 2098,
      "他": 2099,
      "付": 2100,
      "仙": 2101,
      "代": 2102,
      "令": 2103,
      "以": 2104,
      "们": 2105,
      "仲": 2106,
      "件": 2107,
      "价": 2108,
      "任": 2109,
      "企": 2110,
      "伊": 2111,
      "休": 2112,
      "众": 2113,
      "优": 2114,
      "会": 2115,
      "伝": 2116,
      "伟": 2117,
      "传": 2118,
      "伤": 2119,
      "伯": 2120,
      "伸": 2121,
      "似": 2122,
      "伽": 2123,
      "佇": 2124,
      "位": 2125,
      "低": 2126,
      "住": 2127,
      "佐": 2128,
      "佑": 2129,
      "体": 2130,
      "何": 2131,
      "佗": 2132,
      "余": 2133,
      "佛": 2134,
      "作": 2135,
      "你": 2136,
      "佳": 2137,
      "併": 2138,
      "使": 2139,
      "來": 2140,
      "例": 2141,
      "侍": 2142,
      "侏": 2143,
      "供": 2144,
      "依": 2145,
      "侠": 2146,
      "価": 2147,
      "侯": 2148,
      "侵": 2149,
      "便": 2150,
      "係": 2151,
      "促": 2152,
      "俊": 2153,
      "俗": 2154,
      "保": 2155,
      "俞": 2156,
      "信": 2157,
      "修": 2158,
      "俯": 2159,
      "俱": 2160,
      "俳": 2161,
      "俵": 2162,
      "俺": 2163,
      "倉": 2164,
      "個": 2165,
      "倍": 2166,
      "候": 2167,
      "借": 2168,
      "値": 2169,
      "倭": 2170,
      "值": 2171,
      "倾": 2172,
      "假": 2173,
      "停": 2174,
      "健": 2175,
      "側": 2176,
      "偶": 2177,
      "偷": 2178,
      "傑": 2179,
      "備": 2180,
      "储": 2181,
      "催": 2182,
      "傷": 2183,
      "傻": 2184,
      "傾": 2185,
      "働": 2186,
      "像": 2187,
      "僕": 2188,
      "僚": 2189,
      "儀": 2190,
      "儂": 2191,
      "儒": 2192,
      "優": 2193,
      "儿": 2194,
      "元": 2195,
      "充": 2196,
      "先": 2197,
      "光": 2198,
      "克": 2199,
      "児": 2200,
      "兖": 2201,
      "党": 2202,
      "入": 2203,
      "內": 2204,
      "全": 2205,
      "兩": 2206,
      "八": 2207,
      "公": 2208,
      "六": 2209,
      "兮": 2210,
      "共": 2211,
      "关": 2212,
      "兵": 2213,
      "其": 2214,
      "具": 2215,
      "典": 2216,
      "兼": 2217,
      "兽": 2218,
      "内": 2219,
      "円": 2220,
      "再": 2221,
      "冒": 2222,
      "写": 2223,
      "军": 2224,
      "农": 2225,
      "冠": 2226,
      "冬": 2227,
      "决": 2228,
      "冷": 2229,
      "冻": 2230,
      "凄": 2231,
      "准": 2232,
      "凌": 2233,
      "凍": 2234,
      "几": 2235,
      "処": 2236,
      "凯": 2237,
      "出": 2238,
      "击": 2239,
      "凿": 2240,
      "刀": 2241,
      "分": 2242,
      "切": 2243,
      "刊": 2244,
      "刑": 2245,
      "列": 2246,
      "刘": 2247,
      "则": 2248,
      "初": 2249,
      "判": 2250,
      "別": 2251,
      "利": 2252,
      "别": 2253,
      "到": 2254,
      "制": 2255,
      "刹": 2256,
      "刺": 2257,
      "刻": 2258,
      "則": 2259,
      "削": 2260,
      "前": 2261,
      "剑": 2262,
      "剥": 2263,
      "剩": 2264,
      "副": 2265,
      "剰": 2266,
      "割": 2267,
      "創": 2268,
      "劇": 2269,
      "劈": 2270,
      "劉": 2271,
      "力": 2272,
      "劝": 2273,
      "办": 2274,
      "功": 2275,
      "加": 2276,
      "务": 2277,
      "动": 2278,
      "助": 2279,
      "努": 2280,
      "励": 2281,
      "労": 2282,
      "効": 2283,
      "势": 2284,
      "勃": 2285,
      "勇": 2286,
      "勉": 2287,
      "勒": 2288,
      "動": 2289,
      "務": 2290,
      "勝": 2291,
      "勞": 2292,
      "募": 2293,
      "勢": 2294,
      "勾": 2295,
      "匂": 2296,
      "包": 2297,
      "化": 2298,
      "北": 2299,
      "匠": 2300,
      "匣": 2301,
      "匹": 2302,
      "区": 2303,
      "医": 2304,
      "匿": 2305,
      "區": 2306,
      "十": 2307,
      "千": 2308,
      "升": 2309,
      "午": 2310,
      "半": 2311,
      "华": 2312,
      "卒": 2313,
      "協": 2314,
      "单": 2315,
      "南": 2316,
      "単": 2317,
      "博": 2318,
      "占": 2319,
      "卡": 2320,
      "卦": 2321,
      "卫": 2322,
      "印": 2323,
      "危": 2324,
      "即": 2325,
      "却": 2326,
      "卿": 2327,
      "历": 2328,
      "压": 2329,
      "厚": 2330,
      "原": 2331,
      "去": 2332,
      "县": 2333,
      "参": 2334,
      "又": 2335,
      "及": 2336,
      "友": 2337,
      "双": 2338,
      "反": 2339,
      "収": 2340,
      "发": 2341,
      "取": 2342,
      "受": 2343,
      "变": 2344,
      "叟": 2345,
      "口": 2346,
      "古": 2347,
      "句": 2348,
      "叩": 2349,
      "只": 2350,
      "叫": 2351,
      "召": 2352,
      "叭": 2353,
      "可": 2354,
      "台": 2355,
      "史": 2356,
      "右": 2357,
      "叶": 2358,
      "号": 2359,
      "司": 2360,
      "吃": 2361,
      "各": 2362,
      "合": 2363,
      "吉": 2364,
      "同": 2365,
      "名": 2366,
      "后": 2367,
      "吏": 2368,
      "吐": 2369,
      "向": 2370,
      "君": 2371,
      "吟": 2372,
      "否": 2373,
      "吧": 2374,
      "含": 2375,
      "吳": 2376,
      "吴": 2377,
      "吸": 2378,
      "吹": 2379,
      "吾": 2380,
      "呂": 2381,
      "呈": 2382,
      "告": 2383,
      "员": 2384,
      "呟": 2385,
      "呢": 2386,
      "周": 2387,
      "味": 2388,
      "呼": 2389,
      "命": 2390,
      "和": 2391,
      "咖": 2392,
      "咲": 2393,
      "哀": 2394,
      "品": 2395,
      "哈": 2396,
      "哉": 2397,
      "員": 2398,
      "哥": 2399,
      "哪": 2400,
      "哲": 2401,
      "唆": 2402,
      "唇": 2403,
      "唐": 2404,
      "唯": 2405,
      "唱": 2406,
      "商": 2407,
      "問": 2408,
      "啡": 2409,
      "善": 2410,
      "喚": 2411,
      "喜": 2412,
      "喧": 2413,
      "喪": 2414,
      "單": 2415,
      "喵": 2416,
      "営": 2417,
      "嗚": 2418,
      "嘗": 2419,
      "嘩": 2420,
      "嘴": 2421,
      "噛": 2422,
      "器": 2423,
      "噴": 2424,
      "噺": 2425,
      "嚢": 2426,
      "嚴": 2427,
      "嚼": 2428,
      "囗": 2429,
      "四": 2430,
      "回": 2431,
      "因": 2432,
      "团": 2433,
      "団": 2434,
      "园": 2435,
      "困": 2436,
      "囲": 2437,
      "図": 2438,
      "围": 2439,
      "固": 2440,
      "国": 2441,
      "图": 2442,
      "圆": 2443,
      "國": 2444,
      "圍": 2445,
      "園": 2446,
      "圖": 2447,
      "團": 2448,
      "土": 2449,
      "圣": 2450,
      "圧": 2451,
      "在": 2452,
      "地": 2453,
      "场": 2454,
      "圾": 2455,
      "坂": 2456,
      "均": 2457,
      "坊": 2458,
      "坎": 2459,
      "坝": 2460,
      "坤": 2461,
      "垂": 2462,
      "垃": 2463,
      "型": 2464,
      "垢": 2465,
      "垦": 2466,
      "埋": 2467,
      "城": 2468,
      "域": 2469,
      "執": 2470,
      "培": 2471,
      "基": 2472,
      "埼": 2473,
      "堂": 2474,
      "堅": 2475,
      "堤": 2476,
      "堪": 2477,
      "報": 2478,
      "場": 2479,
      "塔": 2480,
      "塗": 2481,
      "塚": 2482,
      "境": 2483,
      "墓": 2484,
      "増": 2485,
      "墙": 2486,
      "增": 2487,
      "墟": 2488,
      "墨": 2489,
      "墮": 2490,
      "墳": 2491,
      "壁": 2492,
      "壇": 2493,
      "壊": 2494,
      "壩": 2495,
      "士": 2496,
      "壮": 2497,
      "声": 2498,
      "売": 2499,
      "壽": 2500,
      "夂": 2501,
      "変": 2502,
      "复": 2503,
      "夏": 2504,
      "夕": 2505,
      "外": 2506,
      "多": 2507,
      "夜": 2508,
      "夢": 2509,
      "大": 2510,
      "天": 2511,
      "太": 2512,
      "夫": 2513,
      "央": 2514,
      "失": 2515,
      "头": 2516,
      "夷": 2517,
      "奇": 2518,
      "奈": 2519,
      "奋": 2520,
      "奏": 2521,
      "奔": 2522,
      "奕": 2523,
      "奖": 2524,
      "套": 2525,
      "奥": 2526,
      "奪": 2527,
      "奮": 2528,
      "女": 2529,
      "奴": 2530,
      "她": 2531,
      "好": 2532,
      "如": 2533,
      "妃": 2534,
      "妈": 2535,
      "妖": 2536,
      "妙": 2537,
      "妹": 2538,
      "妻": 2539,
      "妾": 2540,
      "姉": 2541,
      "始": 2542,
      "姐": 2543,
      "姑": 2544,
      "姓": 2545,
      "委": 2546,
      "姥": 2547,
      "姿": 2548,
      "娇": 2549,
      "婚": 2550,
      "婦": 2551,
      "媒": 2552,
      "嫁": 2553,
      "嫌": 2554,
      "嫖": 2555,
      "嬉": 2556,
      "嬪": 2557,
      "子": 2558,
      "孔": 2559,
      "字": 2560,
      "存": 2561,
      "孙": 2562,
      "孝": 2563,
      "季": 2564,
      "孤": 2565,
      "学": 2566,
      "孩": 2567,
      "孫": 2568,
      "學": 2569,
      "宅": 2570,
      "宇": 2571,
      "守": 2572,
      "安": 2573,
      "宋": 2574,
      "完": 2575,
      "宏": 2576,
      "宗": 2577,
      "官": 2578,
      "宙": 2579,
      "定": 2580,
      "宛": 2581,
      "宜": 2582,
      "宝": 2583,
      "实": 2584,
      "実": 2585,
      "审": 2586,
      "客": 2587,
      "宣": 2588,
      "室": 2589,
      "宮": 2590,
      "宰": 2591,
      "害": 2592,
      "宴": 2593,
      "宵": 2594,
      "家": 2595,
      "容": 2596,
      "宿": 2597,
      "寂": 2598,
      "寄": 2599,
      "密": 2600,
      "寇": 2601,
      "富": 2602,
      "寒": 2603,
      "察": 2604,
      "實": 2605,
      "寧": 2606,
      "審": 2607,
      "寮": 2608,
      "寶": 2609,
      "寸": 2610,
      "对": 2611,
      "寺": 2612,
      "导": 2613,
      "対": 2614,
      "寿": 2615,
      "封": 2616,
      "専": 2617,
      "射": 2618,
      "将": 2619,
      "將": 2620,
      "尊": 2621,
      "導": 2622,
      "小": 2623,
      "少": 2624,
      "尔": 2625,
      "尖": 2626,
      "尚": 2627,
      "就": 2628,
      "尻": 2629,
      "尽": 2630,
      "尾": 2631,
      "局": 2632,
      "层": 2633,
      "居": 2634,
      "屈": 2635,
      "届": 2636,
      "屋": 2637,
      "展": 2638,
      "属": 2639,
      "履": 2640,
      "屬": 2641,
      "山": 2642,
      "屿": 2643,
      "岛": 2644,
      "岡": 2645,
      "岩": 2646,
      "岬": 2647,
      "岳": 2648,
      "峠": 2649,
      "峡": 2650,
      "峪": 2651,
      "峰": 2652,
      "島": 2653,
      "崇": 2654,
      "崎": 2655,
      "崩": 2656,
      "崽": 2657,
      "嵐": 2658,
      "嵩": 2659,
      "嶋": 2660,
      "嶺": 2661,
      "嶽": 2662,
      "川": 2663,
      "州": 2664,
      "巡": 2665,
      "工": 2666,
      "左": 2667,
      "巧": 2668,
      "巨": 2669,
      "差": 2670,
      "己": 2671,
      "已": 2672,
      "巴": 2673,
      "巻": 2674,
      "巾": 2675,
      "市": 2676,
      "布": 2677,
      "帆": 2678,
      "希": 2679,
      "帝": 2680,
      "帥": 2681,
      "師": 2682,
      "席": 2683,
      "帮": 2684,
      "帯": 2685,
      "帰": 2686,
      "帶": 2687,
      "常": 2688,
      "帽": 2689,
      "幅": 2690,
      "幕": 2691,
      "干": 2692,
      "平": 2693,
      "年": 2694,
      "幸": 2695,
      "幹": 2696,
      "幻": 2697,
      "幼": 2698,
      "幾": 2699,
      "广": 2700,
      "庁": 2701,
      "広": 2702,
      "庄": 2703,
      "庆": 2704,
      "库": 2705,
      "应": 2706,
      "底": 2707,
      "府": 2708,
      "废": 2709,
      "度": 2710,
      "座": 2711,
      "庫": 2712,
      "庭": 2713,
      "庶": 2714,
      "康": 2715,
      "廃": 2716,
      "廊": 2717,
      "廖": 2718,
      "廠": 2719,
      "廣": 2720,
      "延": 2721,
      "廷": 2722,
      "建": 2723,
      "开": 2724,
      "弁": 2725,
      "异": 2726,
      "弊": 2727,
      "式": 2728,
      "弓": 2729,
      "引": 2730,
      "弘": 2731,
      "弟": 2732,
      "张": 2733,
      "弥": 2734,
      "張": 2735,
      "強": 2736,
      "弹": 2737,
      "强": 2738,
      "弾": 2739,
      "彎": 2740,
      "当": 2741,
      "录": 2742,
      "彙": 2743,
      "形": 2744,
      "彦": 2745,
      "彩": 2746,
      "彰": 2747,
      "影": 2748,
      "役": 2749,
      "彼": 2750,
      "征": 2751,
      "待": 2752,
      "很": 2753,
      "律": 2754,
      "後": 2755,
      "徐": 2756,
      "徒": 2757,
      "得": 2758,
      "從": 2759,
      "御": 2760,
      "復": 2761,
      "循": 2762,
      "微": 2763,
      "徳": 2764,
      "徵": 2765,
      "德": 2766,
      "徽": 2767,
      "心": 2768,
      "必": 2769,
      "忍": 2770,
      "志": 2771,
      "忘": 2772,
      "忙": 2773,
      "応": 2774,
      "忠": 2775,
      "快": 2776,
      "念": 2777,
      "怀": 2778,
      "态": 2779,
      "怒": 2780,
      "怕": 2781,
      "思": 2782,
      "怡": 2783,
      "急": 2784,
      "性": 2785,
      "怪": 2786,
      "总": 2787,
      "恋": 2788,
      "恐": 2789,
      "恠": 2790,
      "恢": 2791,
      "恥": 2792,
      "恩": 2793,
      "恭": 2794,
      "息": 2795,
      "恵": 2796,
      "恶": 2797,
      "悟": 2798,
      "患": 2799,
      "悩": 2800,
      "悪": 2801,
      "悲": 2802,
      "情": 2803,
      "惑": 2804,
      "惜": 2805,
      "惟": 2806,
      "惠": 2807,
      "惡": 2808,
      "想": 2809,
      "惺": 2810,
      "愉": 2811,
      "意": 2812,
      "愕": 2813,
      "愚": 2814,
      "愛": 2815,
      "感": 2816,
      "慈": 2817,
      "態": 2818,
      "慧": 2819,
      "慮": 2820,
      "慰": 2821,
      "慶": 2822,
      "憂": 2823,
      "憤": 2824,
      "憧": 2825,
      "憬": 2826,
      "憶": 2827,
      "憾": 2828,
      "應": 2829,
      "懐": 2830,
      "懲": 2831,
      "懸": 2832,
      "懿": 2833,
      "戀": 2834,
      "戈": 2835,
      "戉": 2836,
      "戏": 2837,
      "成": 2838,
      "我": 2839,
      "戒": 2840,
      "或": 2841,
      "戟": 2842,
      "戦": 2843,
      "戰": 2844,
      "戳": 2845,
      "戴": 2846,
      "戻": 2847,
      "房": 2848,
      "所": 2849,
      "扁": 2850,
      "扉": 2851,
      "手": 2852,
      "才": 2853,
      "扒": 2854,
      "打": 2855,
      "払": 2856,
      "扱": 2857,
      "批": 2858,
      "承": 2859,
      "技": 2860,
      "把": 2861,
      "抑": 2862,
      "抓": 2863,
      "投": 2864,
      "抗": 2865,
      "折": 2866,
      "抜": 2867,
      "択": 2868,
      "抢": 2869,
      "护": 2870,
      "披": 2871,
      "抱": 2872,
      "抵": 2873,
      "押": 2874,
      "担": 2875,
      "拉": 2876,
      "拍": 2877,
      "拒": 2878,
      "拘": 2879,
      "拙": 2880,
      "招": 2881,
      "拠": 2882,
      "拭": 2883,
      "拿": 2884,
      "持": 2885,
      "指": 2886,
      "按": 2887,
      "挑": 2888,
      "挙": 2889,
      "挝": 2890,
      "振": 2891,
      "捉": 2892,
      "捕": 2893,
      "捜": 2894,
      "换": 2895,
      "捨": 2896,
      "据": 2897,
      "掀": 2898,
      "授": 2899,
      "排": 2900,
      "掛": 2901,
      "採": 2902,
      "探": 2903,
      "接": 2904,
      "控": 2905,
      "推": 2906,
      "掩": 2907,
      "掲": 2908,
      "揃": 2909,
      "揍": 2910,
      "描": 2911,
      "提": 2912,
      "插": 2913,
      "揚": 2914,
      "換": 2915,
      "握": 2916,
      "援": 2917,
      "揺": 2918,
      "損": 2919,
      "搞": 2920,
      "搶": 2921,
      "携": 2922,
      "摂": 2923,
      "摄": 2924,
      "摘": 2925,
      "摩": 2926,
      "撃": 2927,
      "撒": 2928,
      "播": 2929,
      "撮": 2930,
      "撾": 2931,
      "擁": 2932,
      "操": 2933,
      "支": 2934,
      "收": 2935,
      "改": 2936,
      "攻": 2937,
      "放": 2938,
      "政": 2939,
      "故": 2940,
      "敌": 2941,
      "救": 2942,
      "敗": 2943,
      "教": 2944,
      "敢": 2945,
      "散": 2946,
      "敦": 2947,
      "敬": 2948,
      "数": 2949,
      "整": 2950,
      "敵": 2951,
      "敷": 2952,
      "文": 2953,
      "斉": 2954,
      "斌": 2955,
      "斑": 2956,
      "斗": 2957,
      "料": 2958,
      "斜": 2959,
      "断": 2960,
      "斯": 2961,
      "新": 2962,
      "方": 2963,
      "於": 2964,
      "施": 2965,
      "旅": 2966,
      "旋": 2967,
      "族": 2968,
      "旗": 2969,
      "无": 2970,
      "既": 2971,
      "日": 2972,
      "旧": 2973,
      "旨": 2974,
      "早": 2975,
      "旬": 2976,
      "旱": 2977,
      "时": 2978,
      "昆": 2979,
      "昇": 2980,
      "昌": 2981,
      "明": 2982,
      "易": 2983,
      "昔": 2984,
      "星": 2985,
      "映": 2986,
      "春": 2987,
      "昨": 2988,
      "昭": 2989,
      "是": 2990,
      "時": 2991,
      "晉": 2992,
      "晋": 2993,
      "晒": 2994,
      "晨": 2995,
      "晩": 2996,
      "普": 2997,
      "景": 2998,
      "晴": 2999,
      "晶": 3000,
      "智": 3001,
      "暁": 3002,
      "暇": 3003,
      "暑": 3004,
      "暗": 3005,
      "暫": 3006,
      "暮": 3007,
      "暴": 3008,
      "曙": 3009,
      "曜": 3010,
      "曝": 3011,
      "曰": 3012,
      "曲": 3013,
      "更": 3014,
      "書": 3015,
      "曼": 3016,
      "曾": 3017,
      "替": 3018,
      "最": 3019,
      "會": 3020,
      "月": 3021,
      "有": 3022,
      "朋": 3023,
      "服": 3024,
      "朕": 3025,
      "朗": 3026,
      "望": 3027,
      "朝": 3028,
      "期": 3029,
      "朧": 3030,
      "木": 3031,
      "未": 3032,
      "末": 3033,
      "本": 3034,
      "术": 3035,
      "朱": 3036,
      "机": 3037,
      "权": 3038,
      "李": 3039,
      "杏": 3040,
      "材": 3041,
      "村": 3042,
      "束": 3043,
      "条": 3044,
      "来": 3045,
      "杨": 3046,
      "杯": 3047,
      "杰": 3048,
      "東": 3049,
      "松": 3050,
      "板": 3051,
      "析": 3052,
      "林": 3053,
      "枘": 3054,
      "枚": 3055,
      "果": 3056,
      "枝": 3057,
      "架": 3058,
      "柄": 3059,
      "柏": 3060,
      "某": 3061,
      "染": 3062,
      "查": 3063,
      "柯": 3064,
      "柱": 3065,
      "柴": 3066,
      "査": 3067,
      "栄": 3068,
      "标": 3069,
      "校": 3070,
      "株": 3071,
      "核": 3072,
      "根": 3073,
      "格": 3074,
      "桂": 3075,
      "桃": 3076,
      "案": 3077,
      "桜": 3078,
      "桥": 3079,
      "梁": 3080,
      "梓": 3081,
      "條": 3082,
      "械": 3083,
      "棄": 3084,
      "棠": 3085,
      "森": 3086,
      "椅": 3087,
      "植": 3088,
      "検": 3089,
      "椰": 3090,
      "楊": 3091,
      "楚": 3092,
      "業": 3093,
      "極": 3094,
      "楽": 3095,
      "概": 3096,
      "榜": 3097,
      "榮": 3098,
      "構": 3099,
      "様": 3100,
      "樂": 3101,
      "樋": 3102,
      "樓": 3103,
      "標": 3104,
      "模": 3105,
      "権": 3106,
      "横": 3107,
      "樹": 3108,
      "樺": 3109,
      "橋": 3110,
      "橘": 3111,
      "橙": 3112,
      "機": 3113,
      "欠": 3114,
      "次": 3115,
      "欢": 3116,
      "欲": 3117,
      "欺": 3118,
      "欽": 3119,
      "歉": 3120,
      "歌": 3121,
      "歓": 3122,
      "止": 3123,
      "正": 3124,
      "此": 3125,
      "武": 3126,
      "歩": 3127,
      "歪": 3128,
      "歯": 3129,
      "歲": 3130,
      "歳": 3131,
      "歴": 3132,
      "死": 3133,
      "殊": 3134,
      "残": 3135,
      "殖": 3136,
      "段": 3137,
      "殺": 3138,
      "殻": 3139,
      "殿": 3140,
      "母": 3141,
      "毎": 3142,
      "每": 3143,
      "比": 3144,
      "毕": 3145,
      "毘": 3146,
      "毛": 3147,
      "氏": 3148,
      "民": 3149,
      "气": 3150,
      "気": 3151,
      "氣": 3152,
      "水": 3153,
      "氷": 3154,
      "永": 3155,
      "求": 3156,
      "汕": 3157,
      "汚": 3158,
      "汝": 3159,
      "江": 3160,
      "池": 3161,
      "污": 3162,
      "汤": 3163,
      "汪": 3164,
      "決": 3165,
      "汽": 3166,
      "沃": 3167,
      "沈": 3168,
      "沒": 3169,
      "沖": 3170,
      "沙": 3171,
      "没": 3172,
      "河": 3173,
      "沸": 3174,
      "治": 3175,
      "沿": 3176,
      "況": 3177,
      "泉": 3178,
      "法": 3179,
      "波": 3180,
      "泣": 3181,
      "泥": 3182,
      "注": 3183,
      "泰": 3184,
      "泳": 3185,
      "洋": 3186,
      "洗": 3187,
      "洛": 3188,
      "洞": 3189,
      "津": 3190,
      "洪": 3191,
      "洱": 3192,
      "活": 3193,
      "派": 3194,
      "流": 3195,
      "浙": 3196,
      "浜": 3197,
      "浦": 3198,
      "浪": 3199,
      "浬": 3200,
      "浮": 3201,
      "浴": 3202,
      "海": 3203,
      "消": 3204,
      "涙": 3205,
      "涛": 3206,
      "涧": 3207,
      "涯": 3208,
      "涵": 3209,
      "涼": 3210,
      "淑": 3211,
      "淡": 3212,
      "淦": 3213,
      "淨": 3214,
      "淫": 3215,
      "深": 3216,
      "淳": 3217,
      "混": 3218,
      "添": 3219,
      "清": 3220,
      "済": 3221,
      "渓": 3222,
      "減": 3223,
      "渠": 3224,
      "渡": 3225,
      "渦": 3226,
      "温": 3227,
      "測": 3228,
      "港": 3229,
      "游": 3230,
      "渾": 3231,
      "湖": 3232,
      "湛": 3233,
      "湯": 3234,
      "湾": 3235,
      "湿": 3236,
      "満": 3237,
      "源": 3238,
      "準": 3239,
      "溢": 3240,
      "滅": 3241,
      "滑": 3242,
      "满": 3243,
      "滩": 3244,
      "滲": 3245,
      "滴": 3246,
      "漁": 3247,
      "漏": 3248,
      "演": 3249,
      "漠": 3250,
      "漢": 3251,
      "漫": 3252,
      "漯": 3253,
      "潜": 3254,
      "潤": 3255,
      "潮": 3256,
      "潰": 3257,
      "澤": 3258,
      "激": 3259,
      "濃": 3260,
      "濟": 3261,
      "濡": 3262,
      "濱": 3263,
      "濺": 3264,
      "瀚": 3265,
      "瀬": 3266,
      "灘": 3267,
      "灣": 3268,
      "火": 3269,
      "灯": 3270,
      "灵": 3271,
      "災": 3272,
      "炁": 3273,
      "炉": 3274,
      "炎": 3275,
      "炫": 3276,
      "炮": 3277,
      "点": 3278,
      "為": 3279,
      "烈": 3280,
      "热": 3281,
      "焉": 3282,
      "焚": 3283,
      "無": 3284,
      "焦": 3285,
      "然": 3286,
      "焼": 3287,
      "照": 3288,
      "煽": 3289,
      "熱": 3290,
      "燃": 3291,
      "燕": 3292,
      "營": 3293,
      "燮": 3294,
      "爆": 3295,
      "爬": 3296,
      "爲": 3297,
      "爵": 3298,
      "父": 3299,
      "爷": 3300,
      "爸": 3301,
      "爾": 3302,
      "牆": 3303,
      "片": 3304,
      "版": 3305,
      "牌": 3306,
      "牙": 3307,
      "牛": 3308,
      "牧": 3309,
      "物": 3310,
      "牲": 3311,
      "特": 3312,
      "犠": 3313,
      "犬": 3314,
      "犯": 3315,
      "状": 3316,
      "狂": 3317,
      "狒": 3318,
      "狗": 3319,
      "独": 3320,
      "狭": 3321,
      "猛": 3322,
      "猪": 3323,
      "猫": 3324,
      "献": 3325,
      "猴": 3326,
      "猿": 3327,
      "獨": 3328,
      "獲": 3329,
      "獸": 3330,
      "獻": 3331,
      "玄": 3332,
      "率": 3333,
      "玉": 3334,
      "王": 3335,
      "玩": 3336,
      "环": 3337,
      "现": 3338,
      "玲": 3339,
      "珍": 3340,
      "現": 3341,
      "球": 3342,
      "琅": 3343,
      "理": 3344,
      "琉": 3345,
      "琊": 3346,
      "琢": 3347,
      "琪": 3348,
      "琴": 3349,
      "琼": 3350,
      "瑋": 3351,
      "瑛": 3352,
      "瑞": 3353,
      "瑶": 3354,
      "璐": 3355,
      "環": 3356,
      "瓊": 3357,
      "瓶": 3358,
      "生": 3359,
      "産": 3360,
      "用": 3361,
      "田": 3362,
      "由": 3363,
      "甲": 3364,
      "申": 3365,
      "电": 3366,
      "男": 3367,
      "甸": 3368,
      "町": 3369,
      "画": 3370,
      "界": 3371,
      "留": 3372,
      "畜": 3373,
      "畢": 3374,
      "略": 3375,
      "番": 3376,
      "畫": 3377,
      "異": 3378,
      "疆": 3379,
      "疑": 3380,
      "疲": 3381,
      "疾": 3382,
      "病": 3383,
      "症": 3384,
      "痛": 3385,
      "痩": 3386,
      "癌": 3387,
      "癒": 3388,
      "発": 3389,
      "登": 3390,
      "白": 3391,
      "百": 3392,
      "皃": 3393,
      "的": 3394,
      "皆": 3395,
      "皇": 3396,
      "皮": 3397,
      "盆": 3398,
      "益": 3399,
      "监": 3400,
      "盖": 3401,
      "盗": 3402,
      "盛": 3403,
      "盟": 3404,
      "監": 3405,
      "盤": 3406,
      "目": 3407,
      "直": 3408,
      "相": 3409,
      "盾": 3410,
      "省": 3411,
      "看": 3412,
      "県": 3413,
      "真": 3414,
      "眠": 3415,
      "眺": 3416,
      "眼": 3417,
      "眾": 3418,
      "着": 3419,
      "督": 3420,
      "睦": 3421,
      "睿": 3422,
      "瞎": 3423,
      "瞑": 3424,
      "瞬": 3425,
      "瞰": 3426,
      "瞳": 3427,
      "矛": 3428,
      "矢": 3429,
      "矣": 3430,
      "知": 3431,
      "短": 3432,
      "矮": 3433,
      "石": 3434,
      "砂": 3435,
      "研": 3436,
      "砲": 3437,
      "破": 3438,
      "硬": 3439,
      "碑": 3440,
      "確": 3441,
      "碼": 3442,
      "磁": 3443,
      "磨": 3444,
      "礁": 3445,
      "礎": 3446,
      "示": 3447,
      "礼": 3448,
      "社": 3449,
      "祈": 3450,
      "祐": 3451,
      "祓": 3452,
      "祝": 3453,
      "神": 3454,
      "祥": 3455,
      "票": 3456,
      "祭": 3457,
      "祺": 3458,
      "禁": 3459,
      "禊": 3460,
      "福": 3461,
      "禕": 3462,
      "禧": 3463,
      "禮": 3464,
      "离": 3465,
      "禾": 3466,
      "秀": 3467,
      "私": 3468,
      "秋": 3469,
      "种": 3470,
      "科": 3471,
      "秒": 3472,
      "秘": 3473,
      "秦": 3474,
      "称": 3475,
      "移": 3476,
      "程": 3477,
      "稍": 3478,
      "税": 3479,
      "種": 3480,
      "稲": 3481,
      "稻": 3482,
      "稼": 3483,
      "稽": 3484,
      "稿": 3485,
      "穀": 3486,
      "積": 3487,
      "穏": 3488,
      "究": 3489,
      "穹": 3490,
      "空": 3491,
      "穿": 3492,
      "突": 3493,
      "窝": 3494,
      "立": 3495,
      "站": 3496,
      "竜": 3497,
      "章": 3498,
      "童": 3499,
      "端": 3500,
      "竹": 3501,
      "笑": 3502,
      "笔": 3503,
      "笛": 3504,
      "符": 3505,
      "第": 3506,
      "筆": 3507,
      "等": 3508,
      "筋": 3509,
      "筑": 3510,
      "答": 3511,
      "签": 3512,
      "简": 3513,
      "箇": 3514,
      "算": 3515,
      "箝": 3516,
      "管": 3517,
      "箱": 3518,
      "節": 3519,
      "範": 3520,
      "築": 3521,
      "篝": 3522,
      "篤": 3523,
      "簡": 3524,
      "簾": 3525,
      "籍": 3526,
      "米": 3527,
      "类": 3528,
      "粉": 3529,
      "粋": 3530,
      "粒": 3531,
      "粵": 3532,
      "精": 3533,
      "糞": 3534,
      "系": 3535,
      "紀": 3536,
      "約": 3537,
      "純": 3538,
      "紙": 3539,
      "級": 3540,
      "紛": 3541,
      "素": 3542,
      "索": 3543,
      "紫": 3544,
      "累": 3545,
      "細": 3546,
      "紹": 3547,
      "終": 3548,
      "組": 3549,
      "絆": 3550,
      "経": 3551,
      "結": 3552,
      "絞": 3553,
      "絡": 3554,
      "給": 3555,
      "統": 3556,
      "絲": 3557,
      "絵": 3558,
      "絶": 3559,
      "經": 3560,
      "継": 3561,
      "続": 3562,
      "綜": 3563,
      "綠": 3564,
      "維": 3565,
      "綱": 3566,
      "網": 3567,
      "綺": 3568,
      "綾": 3569,
      "総": 3570,
      "緑": 3571,
      "緒": 3572,
      "線": 3573,
      "締": 3574,
      "編": 3575,
      "緩": 3576,
      "緯": 3577,
      "練": 3578,
      "縁": 3579,
      "總": 3580,
      "繁": 3581,
      "繋": 3582,
      "織": 3583,
      "繭": 3584,
      "繰": 3585,
      "纏": 3586,
      "红": 3587,
      "纪": 3588,
      "纯": 3589,
      "线": 3590,
      "终": 3591,
      "经": 3592,
      "结": 3593,
      "给": 3594,
      "统": 3595,
      "绥": 3596,
      "继": 3597,
      "续": 3598,
      "维": 3599,
      "综": 3600,
      "缩": 3601,
      "缶": 3602,
      "缽": 3603,
      "网": 3604,
      "罗": 3605,
      "罠": 3606,
      "罪": 3607,
      "置": 3608,
      "罰": 3609,
      "署": 3610,
      "罵": 3611,
      "羅": 3612,
      "羊": 3613,
      "美": 3614,
      "羞": 3615,
      "群": 3616,
      "義": 3617,
      "羽": 3618,
      "翌": 3619,
      "習": 3620,
      "翻": 3621,
      "翼": 3622,
      "耀": 3623,
      "老": 3624,
      "考": 3625,
      "者": 3626,
      "而": 3627,
      "耐": 3628,
      "耕": 3629,
      "耽": 3630,
      "聋": 3631,
      "职": 3632,
      "联": 3633,
      "聖": 3634,
      "聞": 3635,
      "聯": 3636,
      "職": 3637,
      "聽": 3638,
      "肇": 3639,
      "肉": 3640,
      "肋": 3641,
      "肌": 3642,
      "肏": 3643,
      "肝": 3644,
      "肠": 3645,
      "育": 3646,
      "背": 3647,
      "胎": 3648,
      "胞": 3649,
      "胡": 3650,
      "胸": 3651,
      "能": 3652,
      "脈": 3653,
      "脚": 3654,
      "脩": 3655,
      "脱": 3656,
      "脳": 3657,
      "腐": 3658,
      "腕": 3659,
      "腚": 3660,
      "腰": 3661,
      "腺": 3662,
      "膏": 3663,
      "膝": 3664,
      "膠": 3665,
      "膳": 3666,
      "臓": 3667,
      "臣": 3668,
      "臥": 3669,
      "臨": 3670,
      "自": 3671,
      "臭": 3672,
      "至": 3673,
      "致": 3674,
      "臺": 3675,
      "舆": 3676,
      "興": 3677,
      "舊": 3678,
      "舌": 3679,
      "舞": 3680,
      "航": 3681,
      "般": 3682,
      "船": 3683,
      "艤": 3684,
      "艦": 3685,
      "良": 3686,
      "色": 3687,
      "艾": 3688,
      "节": 3689,
      "芝": 3690,
      "花": 3691,
      "芳": 3692,
      "芸": 3693,
      "苍": 3694,
      "苏": 3695,
      "苑": 3696,
      "苟": 3697,
      "若": 3698,
      "苦": 3699,
      "英": 3700,
      "茂": 3701,
      "范": 3702,
      "茨": 3703,
      "茵": 3704,
      "茶": 3705,
      "草": 3706,
      "荒": 3707,
      "荷": 3708,
      "莉": 3709,
      "莫": 3710,
      "莱": 3711,
      "菊": 3712,
      "菜": 3713,
      "菩": 3714,
      "華": 3715,
      "菲": 3716,
      "萄": 3717,
      "萊": 3718,
      "萩": 3719,
      "萬": 3720,
      "落": 3721,
      "葉": 3722,
      "著": 3723,
      "葡": 3724,
      "董": 3725,
      "葬": 3726,
      "蒜": 3727,
      "蓋": 3728,
      "蓝": 3729,
      "蔑": 3730,
      "蔡": 3731,
      "蔣": 3732,
      "蔵": 3733,
      "蔽": 3734,
      "蕃": 3735,
      "薄": 3736,
      "薇": 3737,
      "薩": 3738,
      "薫": 3739,
      "藍": 3740,
      "藏": 3741,
      "藝": 3742,
      "藤": 3743,
      "藥": 3744,
      "蘇": 3745,
      "蘭": 3746,
      "虎": 3747,
      "虐": 3748,
      "處": 3749,
      "虚": 3750,
      "號": 3751,
      "虫": 3752,
      "蚕": 3753,
      "蛇": 3754,
      "蛛": 3755,
      "蜘": 3756,
      "蝦": 3757,
      "蝶": 3758,
      "融": 3759,
      "螺": 3760,
      "蟠": 3761,
      "蟹": 3762,
      "蠛": 3763,
      "蠻": 3764,
      "血": 3765,
      "衆": 3766,
      "行": 3767,
      "術": 3768,
      "街": 3769,
      "衛": 3770,
      "衝": 3771,
      "衡": 3772,
      "衣": 3773,
      "表": 3774,
      "衰": 3775,
      "袋": 3776,
      "袖": 3777,
      "被": 3778,
      "裁": 3779,
      "裂": 3780,
      "装": 3781,
      "裏": 3782,
      "裕": 3783,
      "補": 3784,
      "裡": 3785,
      "裳": 3786,
      "裴": 3787,
      "裸": 3788,
      "製": 3789,
      "複": 3790,
      "褐": 3791,
      "褒": 3792,
      "襲": 3793,
      "西": 3794,
      "要": 3795,
      "覆": 3796,
      "見": 3797,
      "規": 3798,
      "視": 3799,
      "覚": 3800,
      "覧": 3801,
      "親": 3802,
      "観": 3803,
      "覺": 3804,
      "视": 3805,
      "角": 3806,
      "解": 3807,
      "触": 3808,
      "言": 3809,
      "計": 3810,
      "討": 3811,
      "託": 3812,
      "記": 3813,
      "訟": 3814,
      "訪": 3815,
      "設": 3816,
      "許": 3817,
      "訳": 3818,
      "訴": 3819,
      "証": 3820,
      "詐": 3821,
      "評": 3822,
      "詞": 3823,
      "試": 3824,
      "詰": 3825,
      "話": 3826,
      "該": 3827,
      "詳": 3828,
      "誇": 3829,
      "誌": 3830,
      "認": 3831,
      "誐": 3832,
      "誕": 3833,
      "誘": 3834,
      "語": 3835,
      "誤": 3836,
      "説": 3837,
      "読": 3838,
      "誰": 3839,
      "調": 3840,
      "談": 3841,
      "請": 3842,
      "諏": 3843,
      "論": 3844,
      "諦": 3845,
      "諸": 3846,
      "謂": 3847,
      "謉": 3848,
      "謎": 3849,
      "講": 3850,
      "謝": 3851,
      "謨": 3852,
      "識": 3853,
      "警": 3854,
      "譯": 3855,
      "議": 3856,
      "譲": 3857,
      "護": 3858,
      "變": 3859,
      "讚": 3860,
      "计": 3861,
      "订": 3862,
      "认": 3863,
      "让": 3864,
      "记": 3865,
      "许": 3866,
      "论": 3867,
      "设": 3868,
      "证": 3869,
      "试": 3870,
      "话": 3871,
      "语": 3872,
      "误": 3873,
      "说": 3874,
      "请": 3875,
      "读": 3876,
      "调": 3877,
      "谐": 3878,
      "谢": 3879,
      "谴": 3880,
      "谷": 3881,
      "谿": 3882,
      "豆": 3883,
      "象": 3884,
      "豪": 3885,
      "貍": 3886,
      "貓": 3887,
      "貞": 3888,
      "負": 3889,
      "財": 3890,
      "貢": 3891,
      "貧": 3892,
      "販": 3893,
      "責": 3894,
      "貰": 3895,
      "貴": 3896,
      "買": 3897,
      "費": 3898,
      "貼": 3899,
      "賀": 3900,
      "資": 3901,
      "賊": 3902,
      "賑": 3903,
      "賛": 3904,
      "賞": 3905,
      "賢": 3906,
      "賦": 3907,
      "質": 3908,
      "賴": 3909,
      "購": 3910,
      "责": 3911,
      "贩": 3912,
      "贴": 3913,
      "贵": 3914,
      "费": 3915,
      "赛": 3916,
      "赤": 3917,
      "走": 3918,
      "赵": 3919,
      "起": 3920,
      "超": 3921,
      "越": 3922,
      "趙": 3923,
      "足": 3924,
      "跃": 3925,
      "跋": 3926,
      "跑": 3927,
      "距": 3928,
      "跡": 3929,
      "路": 3930,
      "跳": 3931,
      "踊": 3932,
      "踏": 3933,
      "踒": 3934,
      "踢": 3935,
      "蹦": 3936,
      "躇": 3937,
      "躊": 3938,
      "躍": 3939,
      "身": 3940,
      "躯": 3941,
      "車": 3942,
      "軍": 3943,
      "軒": 3944,
      "転": 3945,
      "軽": 3946,
      "較": 3947,
      "載": 3948,
      "輝": 3949,
      "輩": 3950,
      "轉": 3951,
      "车": 3952,
      "轨": 3953,
      "轩": 3954,
      "转": 3955,
      "辛": 3956,
      "辭": 3957,
      "辰": 3958,
      "農": 3959,
      "辺": 3960,
      "込": 3961,
      "达": 3962,
      "迂": 3963,
      "迄": 3964,
      "过": 3965,
      "迎": 3966,
      "运": 3967,
      "近": 3968,
      "返": 3969,
      "还": 3970,
      "这": 3971,
      "远": 3972,
      "违": 3973,
      "连": 3974,
      "迟": 3975,
      "迤": 3976,
      "迦": 3977,
      "述": 3978,
      "迷": 3979,
      "追": 3980,
      "退": 3981,
      "送": 3982,
      "逃": 3983,
      "逆": 3984,
      "选": 3985,
      "透": 3986,
      "逐": 3987,
      "途": 3988,
      "逗": 3989,
      "這": 3990,
      "通": 3991,
      "速": 3992,
      "造": 3993,
      "連": 3994,
      "逮": 3995,
      "週": 3996,
      "進": 3997,
      "逶": 3998,
      "逸": 3999,
      "遂": 4000,
      "遅": 4001,
      "遇": 4002,
      "遊": 4003,
      "運": 4004,
      "遍": 4005,
      "過": 4006,
      "道": 4007,
      "達": 4008,
      "違": 4009,
      "遠": 4010,
      "遥": 4011,
      "適": 4012,
      "遭": 4013,
      "遮": 4014,
      "遲": 4015,
      "選": 4016,
      "遺": 4017,
      "避": 4018,
      "還": 4019,
      "邊": 4020,
      "邑": 4021,
      "邓": 4022,
      "那": 4023,
      "邦": 4024,
      "邪": 4025,
      "邸": 4026,
      "郊": 4027,
      "郎": 4028,
      "郑": 4029,
      "部": 4030,
      "郭": 4031,
      "都": 4032,
      "鄉": 4033,
      "鄭": 4034,
      "酉": 4035,
      "配": 4036,
      "酒": 4037,
      "酬": 4038,
      "酷": 4039,
      "酸": 4040,
      "醒": 4041,
      "醬": 4042,
      "釈": 4043,
      "釋": 4044,
      "里": 4045,
      "重": 4046,
      "野": 4047,
      "量": 4048,
      "金": 4049,
      "釗": 4050,
      "釣": 4051,
      "鈍": 4052,
      "鈡": 4053,
      "鈴": 4054,
      "鉄": 4055,
      "鉅": 4056,
      "銀": 4057,
      "銘": 4058,
      "鋼": 4059,
      "錄": 4060,
      "錢": 4061,
      "錨": 4062,
      "錫": 4063,
      "錬": 4064,
      "錯": 4065,
      "録": 4066,
      "鎖": 4067,
      "鏞": 4068,
      "鏡": 4069,
      "鑑": 4070,
      "钉": 4071,
      "钟": 4072,
      "钧": 4073,
      "钱": 4074,
      "锅": 4075,
      "锋": 4076,
      "镇": 4077,
      "長": 4078,
      "长": 4079,
      "門": 4080,
      "閉": 4081,
      "開": 4082,
      "閑": 4083,
      "間": 4084,
      "関": 4085,
      "閣": 4086,
      "閩": 4087,
      "閲": 4088,
      "閻": 4089,
      "闘": 4090,
      "關": 4091,
      "门": 4092,
      "问": 4093,
      "闲": 4094,
      "阅": 4095,
      "阱": 4096,
      "防": 4097,
      "阳": 4098,
      "阴": 4099,
      "阶": 4100,
      "阻": 4101,
      "阿": 4102,
      "陀": 4103,
      "际": 4104,
      "陆": 4105,
      "陈": 4106,
      "降": 4107,
      "限": 4108,
      "院": 4109,
      "除": 4110,
      "陥": 4111,
      "险": 4112,
      "陰": 4113,
      "陳": 4114,
      "陵": 4115,
      "陷": 4116,
      "陸": 4117,
      "険": 4118,
      "陽": 4119,
      "隆": 4120,
      "隊": 4121,
      "隋": 4122,
      "階": 4123,
      "随": 4124,
      "隔": 4125,
      "際": 4126,
      "障": 4127,
      "隠": 4128,
      "隣": 4129,
      "險": 4130,
      "隻": 4131,
      "难": 4132,
      "雀": 4133,
      "雁": 4134,
      "雄": 4135,
      "雅": 4136,
      "集": 4137,
      "雇": 4138,
      "雉": 4139,
      "雑": 4140,
      "雞": 4141,
      "離": 4142,
      "難": 4143,
      "雨": 4144,
      "雪": 4145,
      "雲": 4146,
      "零": 4147,
      "雷": 4148,
      "電": 4149,
      "需": 4150,
      "霊": 4151,
      "霜": 4152,
      "霧": 4153,
      "露": 4154,
      "霸": 4155,
      "靈": 4156,
      "青": 4157,
      "静": 4158,
      "非": 4159,
      "靠": 4160,
      "面": 4161,
      "革": 4162,
      "靴": 4163,
      "韓": 4164,
      "音": 4165,
      "韻": 4166,
      "響": 4167,
      "頁": 4168,
      "頃": 4169,
      "項": 4170,
      "順": 4171,
      "須": 4172,
      "預": 4173,
      "頑": 4174,
      "頒": 4175,
      "領": 4176,
      "頬": 4177,
      "頭": 4178,
      "頼": 4179,
      "題": 4180,
      "額": 4181,
      "顏": 4182,
      "顔": 4183,
      "願": 4184,
      "類": 4185,
      "顧": 4186,
      "顯": 4187,
      "页": 4188,
      "顶": 4189,
      "项": 4190,
      "顺": 4191,
      "顾": 4192,
      "频": 4193,
      "题": 4194,
      "颜": 4195,
      "额": 4196,
      "風": 4197,
      "风": 4198,
      "飛": 4199,
      "飞": 4200,
      "食": 4201,
      "飲": 4202,
      "飽": 4203,
      "養": 4204,
      "餐": 4205,
      "餘": 4206,
      "館": 4207,
      "饗": 4208,
      "馆": 4209,
      "馒": 4210,
      "首": 4211,
      "香": 4212,
      "馬": 4213,
      "駅": 4214,
      "駆": 4215,
      "駈": 4216,
      "騎": 4217,
      "騒": 4218,
      "験": 4219,
      "驚": 4220,
      "驪": 4221,
      "马": 4222,
      "驼": 4223,
      "骆": 4224,
      "骨": 4225,
      "體": 4226,
      "高": 4227,
      "髙": 4228,
      "髢": 4229,
      "髪": 4230,
      "髻": 4231,
      "鬯": 4232,
      "鬼": 4233,
      "魂": 4234,
      "魅": 4235,
      "魏": 4236,
      "魔": 4237,
      "魚": 4238,
      "魯": 4239,
      "鮎": 4240,
      "鮑": 4241,
      "鮮": 4242,
      "鱿": 4243,
      "鲍": 4244,
      "鲸": 4245,
      "鳥": 4246,
      "鳩": 4247,
      "鳳": 4248,
      "鳴": 4249,
      "鴉": 4250,
      "鴻": 4251,
      "鶴": 4252,
      "鸞": 4253,
      "鸡": 4254,
      "鸦": 4255,
      "鸽": 4256,
      "鹑": 4257,
      "鹿": 4258,
      "麓": 4259,
      "麗": 4260,
      "麥": 4261,
      "麺": 4262,
      "麻": 4263,
      "麼": 4264,
      "麿": 4265,
      "黃": 4266,
      "黄": 4267,
      "黑": 4268,
      "黒": 4269,
      "默": 4270,
      "黙": 4271,
      "點": 4272,
      "鼓": 4273,
      "鼠": 4274,
      "鼻": 4275,
      "齋": 4276,
      "齒": 4277,
      "齡": 4278,
      "齢": 4279,
      "龃": 4280,
      "龄": 4281,
      "龉": 4282,
      "龍": 4283,
      "龔": 4284,
      "龙": 4285,
      "龜": 4286,
      "ꜣ": 4287,
      "ꜥ": 4288,
      "꞉": 4289,
      "ꠁ": 4290,
      "ꠃ": 4291,
      "ꠅ": 4292,
      "꠆": 4293,
      "ꠉ": 4294,
      "ꠌ": 4295,
      "ꠎ": 4296,
      "ꠑ": 4297,
      "ꠖ": 4298,
      "ꠘ": 4299,
      "ꠡ": 4300,
      "ꠤ": 4301,
      "ꠥ": 4302,
      "ꠦ": 4303,
      "ꦁ": 4304,
      "ꦂ": 4305,
      "ꦈ": 4306,
      "ꦏ": 4307,
      "ꦔ": 4308,
      "ꦛ": 4309,
      "ꦝ": 4310,
      "ꦟ": 4311,
      "ꦠ": 4312,
      "ꦢ": 4313,
      "ꦤ": 4314,
      "ꦥ": 4315,
      "ꦧ": 4316,
      "ꦩ": 4317,
      "ꦫ": 4318,
      "ꦭ": 4319,
      "ꦮ": 4320,
      "ꦱ": 4321,
      "ꦲ": 4322,
      "ꦴ": 4323,
      "ꦶ": 4324,
      "ꦸ": 4325,
      "ꦺ": 4326,
      "ꦼ": 4327,
      "꧀": 4328,
      "꧉": 4329,
      "꧋": 4330,
      "가": 4331,
      "각": 4332,
      "간": 4333,
      "갈": 4334,
      "감": 4335,
      "갑": 4336,
      "갓": 4337,
      "갔": 4338,
      "강": 4339,
      "갖": 4340,
      "같": 4341,
      "개": 4342,
      "걔": 4343,
      "거": 4344,
      "걱": 4345,
      "건": 4346,
      "걸": 4347,
      "검": 4348,
      "겁": 4349,
      "것": 4350,
      "게": 4351,
      "겠": 4352,
      "겨": 4353,
      "격": 4354,
      "견": 4355,
      "결": 4356,
      "겹": 4357,
      "겼": 4358,
      "경": 4359,
      "계": 4360,
      "고": 4361,
      "곡": 4362,
      "곤": 4363,
      "곧": 4364,
      "골": 4365,
      "곰": 4366,
      "곱": 4367,
      "공": 4368,
      "과": 4369,
      "곽": 4370,
      "관": 4371,
      "광": 4372,
      "괘": 4373,
      "괴": 4374,
      "굉": 4375,
      "교": 4376,
      "구": 4377,
      "국": 4378,
      "군": 4379,
      "굴": 4380,
      "궁": 4381,
      "권": 4382,
      "귀": 4383,
      "규": 4384,
      "균": 4385,
      "그": 4386,
      "극": 4387,
      "근": 4388,
      "글": 4389,
      "금": 4390,
      "급": 4391,
      "긋": 4392,
      "기": 4393,
      "긴": 4394,
      "길": 4395,
      "김": 4396,
      "깃": 4397,
      "까": 4398,
      "깎": 4399,
      "깐": 4400,
      "깔": 4401,
      "깜": 4402,
      "깨": 4403,
      "꺼": 4404,
      "껀": 4405,
      "껄": 4406,
      "께": 4407,
      "꼬": 4408,
      "꼭": 4409,
      "꼼": 4410,
      "꽃": 4411,
      "꾀": 4412,
      "꾸": 4413,
      "꾼": 4414,
      "꿀": 4415,
      "꿔": 4416,
      "끄": 4417,
      "끈": 4418,
      "끌": 4419,
      "끔": 4420,
      "끝": 4421,
      "끼": 4422,
      "낀": 4423,
      "낄": 4424,
      "나": 4425,
      "낙": 4426,
      "낚": 4427,
      "난": 4428,
      "날": 4429,
      "남": 4430,
      "났": 4431,
      "낳": 4432,
      "내": 4433,
      "낸": 4434,
      "낼": 4435,
      "냈": 4436,
      "냐": 4437,
      "냥": 4438,
      "너": 4439,
      "넉": 4440,
      "넌": 4441,
      "널": 4442,
      "넓": 4443,
      "넘": 4444,
      "넛": 4445,
      "넝": 4446,
      "넣": 4447,
      "네": 4448,
      "넥": 4449,
      "넷": 4450,
      "녀": 4451,
      "년": 4452,
      "녔": 4453,
      "녕": 4454,
      "노": 4455,
      "녹": 4456,
      "놈": 4457,
      "농": 4458,
      "높": 4459,
      "놓": 4460,
      "놔": 4461,
      "누": 4462,
      "눈": 4463,
      "뉴": 4464,
      "느": 4465,
      "늑": 4466,
      "는": 4467,
      "늘": 4468,
      "능": 4469,
      "니": 4470,
      "닌": 4471,
      "닐": 4472,
      "님": 4473,
      "닛": 4474,
      "다": 4475,
      "단": 4476,
      "달": 4477,
      "담": 4478,
      "닷": 4479,
      "당": 4480,
      "대": 4481,
      "댁": 4482,
      "댄": 4483,
      "더": 4484,
      "덕": 4485,
      "던": 4486,
      "덜": 4487,
      "덤": 4488,
      "데": 4489,
      "덴": 4490,
      "뎌": 4491,
      "도": 4492,
      "독": 4493,
      "돈": 4494,
      "돌": 4495,
      "돕": 4496,
      "동": 4497,
      "돼": 4498,
      "됐": 4499,
      "되": 4500,
      "된": 4501,
      "될": 4502,
      "됨": 4503,
      "두": 4504,
      "둔": 4505,
      "둘": 4506,
      "둬": 4507,
      "뒤": 4508,
      "뒷": 4509,
      "드": 4510,
      "득": 4511,
      "든": 4512,
      "듣": 4513,
      "들": 4514,
      "듯": 4515,
      "등": 4516,
      "디": 4517,
      "딘": 4518,
      "딨": 4519,
      "딩": 4520,
      "따": 4521,
      "딸": 4522,
      "때": 4523,
      "땐": 4524,
      "떠": 4525,
      "떤": 4526,
      "떨": 4527,
      "떳": 4528,
      "떻": 4529,
      "또": 4530,
      "똑": 4531,
      "뚝": 4532,
      "뚫": 4533,
      "뚱": 4534,
      "뛰": 4535,
      "뜨": 4536,
      "뜻": 4537,
      "라": 4538,
      "락": 4539,
      "란": 4540,
      "랄": 4541,
      "람": 4542,
      "랍": 4543,
      "랐": 4544,
      "랑": 4545,
      "래": 4546,
      "랙": 4547,
      "랜": 4548,
      "램": 4549,
      "랩": 4550,
      "랬": 4551,
      "략": 4552,
      "러": 4553,
      "럭": 4554,
      "런": 4555,
      "럼": 4556,
      "럽": 4557,
      "렀": 4558,
      "렁": 4559,
      "렇": 4560,
      "레": 4561,
      "렉": 4562,
      "려": 4563,
      "력": 4564,
      "련": 4565,
      "렬": 4566,
      "렸": 4567,
      "령": 4568,
      "례": 4569,
      "로": 4570,
      "록": 4571,
      "론": 4572,
      "롤": 4573,
      "롭": 4574,
      "롯": 4575,
      "료": 4576,
      "룡": 4577,
      "루": 4578,
      "룩": 4579,
      "룰": 4580,
      "류": 4581,
      "률": 4582,
      "륭": 4583,
      "르": 4584,
      "른": 4585,
      "를": 4586,
      "름": 4587,
      "릅": 4588,
      "릉": 4589,
      "리": 4590,
      "린": 4591,
      "릴": 4592,
      "림": 4593,
      "립": 4594,
      "링": 4595,
      "마": 4596,
      "막": 4597,
      "만": 4598,
      "많": 4599,
      "말": 4600,
      "맘": 4601,
      "맙": 4602,
      "망": 4603,
      "맞": 4604,
      "맡": 4605,
      "매": 4606,
      "맺": 4607,
      "머": 4608,
      "먹": 4609,
      "먼": 4610,
      "멀": 4611,
      "멋": 4612,
      "멍": 4613,
      "메": 4614,
      "며": 4615,
      "면": 4616,
      "멸": 4617,
      "명": 4618,
      "몇": 4619,
      "모": 4620,
      "목": 4621,
      "몬": 4622,
      "몰": 4623,
      "못": 4624,
      "몽": 4625,
      "무": 4626,
      "문": 4627,
      "묻": 4628,
      "물": 4629,
      "뭐": 4630,
      "뭘": 4631,
      "뮤": 4632,
      "미": 4633,
      "민": 4634,
      "믿": 4635,
      "밀": 4636,
      "밍": 4637,
      "및": 4638,
      "바": 4639,
      "박": 4640,
      "밖": 4641,
      "반": 4642,
      "받": 4643,
      "발": 4644,
      "밝": 4645,
      "밥": 4646,
      "방": 4647,
      "배": 4648,
      "백": 4649,
      "버": 4650,
      "벅": 4651,
      "번": 4652,
      "벌": 4653,
      "범": 4654,
      "법": 4655,
      "벗": 4656,
      "베": 4657,
      "벤": 4658,
      "벨": 4659,
      "벽": 4660,
      "변": 4661,
      "별": 4662,
      "병": 4663,
      "보": 4664,
      "복": 4665,
      "본": 4666,
      "볼": 4667,
      "봉": 4668,
      "봐": 4669,
      "봣": 4670,
      "봤": 4671,
      "뵙": 4672,
      "부": 4673,
      "북": 4674,
      "분": 4675,
      "불": 4676,
      "붉": 4677,
      "붙": 4678,
      "뷰": 4679,
      "브": 4680,
      "블": 4681,
      "비": 4682,
      "빈": 4683,
      "빌": 4684,
      "빙": 4685,
      "빚": 4686,
      "빛": 4687,
      "빠": 4688,
      "빨": 4689,
      "빵": 4690,
      "뻣": 4691,
      "뻥": 4692,
      "뽀": 4693,
      "뽑": 4694,
      "뿔": 4695,
      "쁘": 4696,
      "쁜": 4697,
      "삐": 4698,
      "사": 4699,
      "삭": 4700,
      "산": 4701,
      "살": 4702,
      "삶": 4703,
      "삼": 4704,
      "상": 4705,
      "새": 4706,
      "생": 4707,
      "서": 4708,
      "석": 4709,
      "선": 4710,
      "설": 4711,
      "섬": 4712,
      "섭": 4713,
      "섰": 4714,
      "성": 4715,
      "세": 4716,
      "센": 4717,
      "셈": 4718,
      "션": 4719,
      "셧": 4720,
      "셨": 4721,
      "소": 4722,
      "속": 4723,
      "손": 4724,
      "솔": 4725,
      "송": 4726,
      "쇠": 4727,
      "쇼": 4728,
      "수": 4729,
      "숙": 4730,
      "순": 4731,
      "술": 4732,
      "숨": 4733,
      "쉬": 4734,
      "쉽": 4735,
      "쉿": 4736,
      "슈": 4737,
      "스": 4738,
      "슨": 4739,
      "슬": 4740,
      "슴": 4741,
      "습": 4742,
      "슷": 4743,
      "승": 4744,
      "시": 4745,
      "식": 4746,
      "신": 4747,
      "실": 4748,
      "싫": 4749,
      "심": 4750,
      "십": 4751,
      "싶": 4752,
      "싸": 4753,
      "싼": 4754,
      "쌈": 4755,
      "쌍": 4756,
      "써": 4757,
      "썩": 4758,
      "썼": 4759,
      "쓰": 4760,
      "쓴": 4761,
      "씨": 4762,
      "씩": 4763,
      "씬": 4764,
      "씸": 4765,
      "씹": 4766,
      "아": 4767,
      "악": 4768,
      "안": 4769,
      "않": 4770,
      "알": 4771,
      "암": 4772,
      "압": 4773,
      "았": 4774,
      "앞": 4775,
      "애": 4776,
      "액": 4777,
      "앨": 4778,
      "야": 4779,
      "약": 4780,
      "양": 4781,
      "얘": 4782,
      "어": 4783,
      "억": 4784,
      "언": 4785,
      "얻": 4786,
      "얼": 4787,
      "엄": 4788,
      "업": 4789,
      "없": 4790,
      "엇": 4791,
      "었": 4792,
      "엉": 4793,
      "에": 4794,
      "엑": 4795,
      "엔": 4796,
      "엘": 4797,
      "여": 4798,
      "역": 4799,
      "연": 4800,
      "열": 4801,
      "염": 4802,
      "였": 4803,
      "영": 4804,
      "예": 4805,
      "오": 4806,
      "옥": 4807,
      "온": 4808,
      "올": 4809,
      "옮": 4810,
      "옷": 4811,
      "옹": 4812,
      "와": 4813,
      "완": 4814,
      "왔": 4815,
      "왕": 4816,
      "왜": 4817,
      "외": 4818,
      "요": 4819,
      "욕": 4820,
      "용": 4821,
      "우": 4822,
      "욱": 4823,
      "운": 4824,
      "울": 4825,
      "움": 4826,
      "웁": 4827,
      "웃": 4828,
      "워": 4829,
      "원": 4830,
      "월": 4831,
      "웟": 4832,
      "웠": 4833,
      "웬": 4834,
      "윁": 4835,
      "위": 4836,
      "윙": 4837,
      "유": 4838,
      "육": 4839,
      "윤": 4840,
      "율": 4841,
      "으": 4842,
      "은": 4843,
      "을": 4844,
      "음": 4845,
      "읍": 4846,
      "응": 4847,
      "의": 4848,
      "이": 4849,
      "익": 4850,
      "인": 4851,
      "일": 4852,
      "임": 4853,
      "입": 4854,
      "잇": 4855,
      "있": 4856,
      "잉": 4857,
      "잊": 4858,
      "자": 4859,
      "작": 4860,
      "잔": 4861,
      "잘": 4862,
      "잠": 4863,
      "잡": 4864,
      "장": 4865,
      "재": 4866,
      "저": 4867,
      "적": 4868,
      "전": 4869,
      "절": 4870,
      "젊": 4871,
      "점": 4872,
      "접": 4873,
      "정": 4874,
      "젖": 4875,
      "제": 4876,
      "젝": 4877,
      "젤": 4878,
      "져": 4879,
      "졌": 4880,
      "조": 4881,
      "족": 4882,
      "존": 4883,
      "좀": 4884,
      "종": 4885,
      "좆": 4886,
      "좋": 4887,
      "죄": 4888,
      "죠": 4889,
      "주": 4890,
      "죽": 4891,
      "준": 4892,
      "줄": 4893,
      "줌": 4894,
      "중": 4895,
      "줘": 4896,
      "줬": 4897,
      "쥐": 4898,
      "즈": 4899,
      "즉": 4900,
      "즌": 4901,
      "즘": 4902,
      "증": 4903,
      "지": 4904,
      "직": 4905,
      "진": 4906,
      "질": 4907,
      "짐": 4908,
      "집": 4909,
      "짓": 4910,
      "징": 4911,
      "짜": 4912,
      "짝": 4913,
      "짧": 4914,
      "째": 4915,
      "쨌": 4916,
      "쨍": 4917,
      "쪽": 4918,
      "쫓": 4919,
      "쯧": 4920,
      "찌": 4921,
      "찍": 4922,
      "찔": 4923,
      "차": 4924,
      "착": 4925,
      "찬": 4926,
      "찰": 4927,
      "참": 4928,
      "창": 4929,
      "찾": 4930,
      "채": 4931,
      "책": 4932,
      "챔": 4933,
      "챙": 4934,
      "처": 4935,
      "천": 4936,
      "철": 4937,
      "첩": 4938,
      "첫": 4939,
      "청": 4940,
      "체": 4941,
      "쳐": 4942,
      "쳤": 4943,
      "초": 4944,
      "총": 4945,
      "최": 4946,
      "추": 4947,
      "축": 4948,
      "춘": 4949,
      "출": 4950,
      "충": 4951,
      "춰": 4952,
      "취": 4953,
      "츠": 4954,
      "측": 4955,
      "층": 4956,
      "치": 4957,
      "칙": 4958,
      "친": 4959,
      "칠": 4960,
      "카": 4961,
      "캐": 4962,
      "캡": 4963,
      "커": 4964,
      "컨": 4965,
      "컬": 4966,
      "컴": 4967,
      "케": 4968,
      "켜": 4969,
      "켰": 4970,
      "코": 4971,
      "콘": 4972,
      "콜": 4973,
      "콧": 4974,
      "콩": 4975,
      "콸": 4976,
      "쿨": 4977,
      "쿵": 4978,
      "퀘": 4979,
      "퀴": 4980,
      "크": 4981,
      "큰": 4982,
      "클": 4983,
      "큼": 4984,
      "키": 4985,
      "킨": 4986,
      "킬": 4987,
      "킴": 4988,
      "킹": 4989,
      "타": 4990,
      "탄": 4991,
      "탈": 4992,
      "탐": 4993,
      "탑": 4994,
      "탕": 4995,
      "태": 4996,
      "택": 4997,
      "터": 4998,
      "턴": 4999,
      "텀": 5000,
      "테": 5001,
      "텐": 5002,
      "텔": 5003,
      "템": 5004,
      "토": 5005,
      "통": 5006,
      "퇴": 5007,
      "투": 5008,
      "튀": 5009,
      "트": 5010,
      "특": 5011,
      "튼": 5012,
      "틀": 5013,
      "티": 5014,
      "틴": 5015,
      "팀": 5016,
      "팅": 5017,
      "파": 5018,
      "판": 5019,
      "팔": 5020,
      "패": 5021,
      "팩": 5022,
      "팬": 5023,
      "퍼": 5024,
      "페": 5025,
      "편": 5026,
      "평": 5027,
      "폐": 5028,
      "포": 5029,
      "폭": 5030,
      "표": 5031,
      "푸": 5032,
      "풀": 5033,
      "품": 5034,
      "프": 5035,
      "픈": 5036,
      "플": 5037,
      "픔": 5038,
      "피": 5039,
      "픽": 5040,
      "필": 5041,
      "하": 5042,
      "학": 5043,
      "한": 5044,
      "할": 5045,
      "함": 5046,
      "합": 5047,
      "항": 5048,
      "해": 5049,
      "햄": 5050,
      "햇": 5051,
      "했": 5052,
      "행": 5053,
      "향": 5054,
      "허": 5055,
      "험": 5056,
      "헝": 5057,
      "헤": 5058,
      "혀": 5059,
      "현": 5060,
      "혐": 5061,
      "협": 5062,
      "혔": 5063,
      "형": 5064,
      "혜": 5065,
      "호": 5066,
      "혹": 5067,
      "혼": 5068,
      "홀": 5069,
      "홍": 5070,
      "화": 5071,
      "확": 5072,
      "환": 5073,
      "활": 5074,
      "황": 5075,
      "회": 5076,
      "획": 5077,
      "효": 5078,
      "후": 5079,
      "훈": 5080,
      "훨": 5081,
      "훼": 5082,
      "휘": 5083,
      "휭": 5084,
      "휴": 5085,
      "흑": 5086,
      "흔": 5087,
      "흘": 5088,
      "흥": 5089,
      "희": 5090,
      "히": 5091,
      "힌": 5092,
      "힐": 5093,
      "힘": 5094,
      "힙": 5095,
      "": 5096,
      "": 5097,
      "": 5098,
      "": 5099,
      "": 5100,
      "": 5101,
      "": 5102,
      "": 5103,
      "": 5104,
      "": 5105,
      "": 5106,
      "": 5107,
      "": 5108,
      "": 5109,
      "": 5110,
      "": 5111,
      "": 5112,
      "": 5113,
      "": 5114,
      "": 5115,
      "": 5116,
      "": 5117,
      "": 5118,
      "": 5119,
      "": 5120,
      "": 5121,
      "": 5122,
      "": 5123,
      "": 5124,
      "": 5125,
      "": 5126,
      "": 5127,
      "": 5128,
      "": 5129,
      "": 5130,
      "": 5131,
      "": 5132,
      "": 5133,
      "": 5134,
      "": 5135,
      "": 5136,
      "": 5137,
      "": 5138,
      "": 5139,
      "": 5140,
      "": 5141,
      "": 5142,
      "": 5143,
      "": 5144,
      "": 5145,
      "": 5146,
      "": 5147,
      "": 5148,
      "": 5149,
      "": 5150,
      "": 5151,
      "": 5152,
      "": 5153,
      "": 5154,
      "": 5155,
      "": 5156,
      "": 5157,
      "": 5158,
      "": 5159,
      "": 5160,
      "": 5161,
      "": 5162,
      "": 5163,
      "": 5164,
      "": 5165,
      "": 5166,
      "": 5167,
      "": 5168,
      "": 5169,
      "": 5170,
      "": 5171,
      "": 5172,
      "": 5173,
      "": 5174,
      "": 5175,
      "": 5176,
      "": 5177,
      "": 5178,
      "": 5179,
      "": 5180,
      "": 5181,
      "ﬀ": 5182,
      "ﬁ": 5183,
      "ﬂ": 5184,
      "ﭑ": 5185,
      "ﭒ": 5186,
      "ﭓ": 5187,
      "ﭔ": 5188,
      "ﭕ": 5189,
      "ﭖ": 5190,
      "ﭗ": 5191,
      "ﭘ": 5192,
      "ﭙ": 5193,
      "ﭚ": 5194,
      "ﭛ": 5195,
      "ﭜ": 5196,
      "ﭝ": 5197,
      "ﭮ": 5198,
      "ﭯ": 5199,
      "ﭰ": 5200,
      "ﭱ": 5201,
      "ﭲ": 5202,
      "ﭳ": 5203,
      "ﭴ": 5204,
      "ﭵ": 5205,
      "ﭶ": 5206,
      "ﭷ": 5207,
      "ﭸ": 5208,
      "ﭹ": 5209,
      "ﭺ": 5210,
      "ﭻ": 5211,
      "ﭼ": 5212,
      "ﭽ": 5213,
      "ﮍ": 5214,
      "ﮎ": 5215,
      "ﮏ": 5216,
      "ﮐ": 5217,
      "ﮑ": 5218,
      "ﮒ": 5219,
      "ﮓ": 5220,
      "ﮔ": 5221,
      "ﮕ": 5222,
      "ﮖ": 5223,
      "ﮗ": 5224,
      "ﮘ": 5225,
      "ﮢ": 5226,
      "ﮣ": 5227,
      "ﮤ": 5228,
      "ﮥ": 5229,
      "ﮦ": 5230,
      "ﮧ": 5231,
      "ﮨ": 5232,
      "ﮩ": 5233,
      "ﮪ": 5234,
      "ﮫ": 5235,
      "ﮬ": 5236,
      "ﮭ": 5237,
      "ﮮ": 5238,
      "ﮯ": 5239,
      "ﮰ": 5240,
      "ﮱ": 5241,
      "ﯓ": 5242,
      "ﯔ": 5243,
      "ﯕ": 5244,
      "ﯖ": 5245,
      "ﯗ": 5246,
      "ﯘ": 5247,
      "ﯙ": 5248,
      "ﯚ": 5249,
      "ﯛ": 5250,
      "ﯜ": 5251,
      "ﯝ": 5252,
      "ﯞ": 5253,
      "ﯟ": 5254,
      "ﯠ": 5255,
      "ﯡ": 5256,
      "ﯢ": 5257,
      "ﯣ": 5258,
      "ﯤ": 5259,
      "ﯥ": 5260,
      "ﯦ": 5261,
      "ﯱ": 5262,
      "ﯲ": 5263,
      "ﯳ": 5264,
      "ﯴ": 5265,
      "ﯵ": 5266,
      "ﯶ": 5267,
      "ﯷ": 5268,
      "ﯸ": 5269,
      "ﯹ": 5270,
      "ﯺ": 5271,
      "ﯻ": 5272,
      "ﯼ": 5273,
      "ﯽ": 5274,
      "ﯾ": 5275,
      "ﯿ": 5276,
      "ﰀ": 5277,
      "ﰁ": 5278,
      "ﰂ": 5279,
      "ﰃ": 5280,
      "ﰄ": 5281,
      "ﰅ": 5282,
      "ﰆ": 5283,
      "ﰇ": 5284,
      "ﰈ": 5285,
      "ﰉ": 5286,
      "ﰊ": 5287,
      "ﰋ": 5288,
      "ﰌ": 5289,
      "ﰍ": 5290,
      "ﰎ": 5291,
      "ﰏ": 5292,
      "ﰐ": 5293,
      "ﰑ": 5294,
      "ﰒ": 5295,
      "ﷺ": 5296,
      "︎": 5297,
      "️": 5298,
      "︵": 5299,
      "﹠": 5300,
      "﻿": 5301,
      "！": 5302,
      "％": 5303,
      "＆": 5304,
      "（": 5305,
      "）": 5306,
      "＊": 5307,
      "＋": 5308,
      "，": 5309,
      "－": 5310,
      "．": 5311,
      "／": 5312,
      "０": 5313,
      "１": 5314,
      "２": 5315,
      "３": 5316,
      "４": 5317,
      "５": 5318,
      "６": 5319,
      "７": 5320,
      "８": 5321,
      "９": 5322,
      "：": 5323,
      "；": 5324,
      "＜": 5325,
      "＝": 5326,
      "＞": 5327,
      "？": 5328,
      "Ａ": 5329,
      "Ｂ": 5330,
      "Ｃ": 5331,
      "Ｄ": 5332,
      "Ｅ": 5333,
      "Ｆ": 5334,
      "Ｇ": 5335,
      "Ｈ": 5336,
      "Ｉ": 5337,
      "Ｊ": 5338,
      "Ｋ": 5339,
      "Ｌ": 5340,
      "Ｍ": 5341,
      "Ｎ": 5342,
      "Ｏ": 5343,
      "Ｐ": 5344,
      "Ｑ": 5345,
      "Ｒ": 5346,
      "Ｓ": 5347,
      "Ｔ": 5348,
      "Ｕ": 5349,
      "Ｖ": 5350,
      "Ｗ": 5351,
      "Ｘ": 5352,
      "Ｚ": 5353,
      "［": 5354,
      "＼": 5355,
      "］": 5356,
      "＿": 5357,
      "｀": 5358,
      "ａ": 5359,
      "ｂ": 5360,
      "ｄ": 5361,
      "ｅ": 5362,
      "ｇ": 5363,
      "ｈ": 5364,
      "ｉ": 5365,
      "ｋ": 5366,
      "ｌ": 5367,
      "ｍ": 5368,
      "ｎ": 5369,
      "ｏ": 5370,
      "ｐ": 5371,
      "ｒ": 5372,
      "ｓ": 5373,
      "ｕ": 5374,
      "ｗ": 5375,
      "ｚ": 5376,
      "｜": 5377,
      "～": 5378,
      "｡": 5379,
      "｢": 5380,
      "｣": 5381,
      "､": 5382,
      "･": 5383,
      "ｨ": 5384,
      "ｱ": 5385,
      "ｲ": 5386,
      "ｽ": 5387,
      "ﾀ": 5388,
      "ﾉ": 5389,
      "ﾒ": 5390,
      "ﾔ": 5391,
      "ﾞ": 5392,
      "ﾟ": 5393,
      "￢": 5394,
      "￥": 5395,
      "￼": 5396,
      "�": 5397,
      "𐑓": 5398,
      "𐑕": 5399,
      "𐑖": 5400,
      "𐑝": 5401,
      "𐑟": 5402,
      "𐑨": 5403,
      "𐑯": 5404,
      "𐑰": 5405,
      "𐑱": 5406,
      "𐑹": 5407,
      "𐑾": 5408,
      "𐩣": 5409,
      "𐩬": 5410,
      "𐩺": 5411,
      "𓃀": 5412,
      "𓅃": 5413,
      "𓆑": 5414,
      "𓇳": 5415,
      "𓇼": 5416,
      "𓈖": 5417,
      "𓊀": 5418,
      "𓋴": 5419,
      "𓏥": 5420,
      "𝆩": 5421,
      "𝐀": 5422,
      "𝐂": 5423,
      "𝐃": 5424,
      "𝐄": 5425,
      "𝐆": 5426,
      "𝐈": 5427,
      "𝐋": 5428,
      "𝐌": 5429,
      "𝐍": 5430,
      "𝐎": 5431,
      "𝐏": 5432,
      "𝐑": 5433,
      "𝐒": 5434,
      "𝐓": 5435,
      "𝐔": 5436,
      "𝐖": 5437,
      "𝐘": 5438,
      "𝑪": 5439,
      "𝑫": 5440,
      "𝑬": 5441,
      "𝑰": 5442,
      "𝑳": 5443,
      "𝑵": 5444,
      "𝑶": 5445,
      "𝑹": 5446,
      "𝑺": 5447,
      "𝑻": 5448,
      "𝒴": 5449,
      "𝔄": 5450,
      "𝔅": 5451,
      "𝔇": 5452,
      "𝔈": 5453,
      "𝔉": 5454,
      "𝔊": 5455,
      "𝔍": 5456,
      "𝔎": 5457,
      "𝔏": 5458,
      "𝔐": 5459,
      "𝔑": 5460,
      "𝔒": 5461,
      "𝔓": 5462,
      "𝔔": 5463,
      "𝔖": 5464,
      "𝔗": 5465,
      "𝔘": 5466,
      "𝔙": 5467,
      "𝔚": 5468,
      "𝔛": 5469,
      "𝔜": 5470,
      "𝔞": 5471,
      "𝔟": 5472,
      "𝔠": 5473,
      "𝔡": 5474,
      "𝔢": 5475,
      "𝔣": 5476,
      "𝔤": 5477,
      "𝔥": 5478,
      "𝔦": 5479,
      "𝔧": 5480,
      "𝔨": 5481,
      "𝔩": 5482,
      "𝔪": 5483,
      "𝔫": 5484,
      "𝔬": 5485,
      "𝔭": 5486,
      "𝔮": 5487,
      "𝔯": 5488,
      "𝔰": 5489,
      "𝔱": 5490,
      "𝔲": 5491,
      "𝔳": 5492,
      "𝔴": 5493,
      "𝔵": 5494,
      "𝔶": 5495,
      "𝔷": 5496,
      "𝔹": 5497,
      "𝕄": 5498,
      "𝕕": 5499,
      "𝕙": 5500,
      "𝕡": 5501,
      "𝕣": 5502,
      "𝕦": 5503,
      "𝕪": 5504,
      "𝕬": 5505,
      "𝕭": 5506,
      "𝕮": 5507,
      "𝕯": 5508,
      "𝕰": 5509,
      "𝕱": 5510,
      "𝕲": 5511,
      "𝕳": 5512,
      "𝕴": 5513,
      "𝕵": 5514,
      "𝕶": 5515,
      "𝕷": 5516,
      "𝕸": 5517,
      "𝕹": 5518,
      "𝕺": 5519,
      "𝕻": 5520,
      "𝕼": 5521,
      "𝕽": 5522,
      "𝕾": 5523,
      "𝕿": 5524,
      "𝖀": 5525,
      "𝖁": 5526,
      "𝖂": 5527,
      "𝖃": 5528,
      "𝖄": 5529,
      "𝖅": 5530,
      "𝖆": 5531,
      "𝖇": 5532,
      "𝖈": 5533,
      "𝖉": 5534,
      "𝖊": 5535,
      "𝖋": 5536,
      "𝖌": 5537,
      "𝖍": 5538,
      "𝖎": 5539,
      "𝖏": 5540,
      "𝖐": 5541,
      "𝖑": 5542,
      "𝖒": 5543,
      "𝖓": 5544,
      "𝖔": 5545,
      "𝖕": 5546,
      "𝖖": 5547,
      "𝖗": 5548,
      "𝖘": 5549,
      "𝖙": 5550,
      "𝖚": 5551,
      "𝖛": 5552,
      "𝖜": 5553,
      "𝖝": 5554,
      "𝖞": 5555,
      "𝖟": 5556,
      "𝜈": 5557,
      "𝟎": 5558,
      "𝟏": 5559,
      "𝟮": 5560,
      "𝟯": 5561,
      "𝟰": 5562,
      "𝟱": 5563,
      "𝟲": 5564,
      "𝟳": 5565,
      "𝟴": 5566,
      "𝟵": 5567,
      "🆕": 5568,
      "🇦": 5569,
      "🇧": 5570,
      "🇨": 5571,
      "🇩": 5572,
      "🇪": 5573,
      "🇫": 5574,
      "🇮": 5575,
      "🇰": 5576,
      "🇱": 5577,
      "🇲": 5578,
      "🇳": 5579,
      "🇴": 5580,
      "🇵": 5581,
      "🇷": 5582,
      "🇸": 5583,
      "🇹": 5584,
      "🇺": 5585,
      "🌈": 5586,
      "🌊": 5587,
      "🌍": 5588,
      "🌎": 5589,
      "🌐": 5590,
      "🌞": 5591,
      "🌟": 5592,
      "🌧": 5593,
      "🌨": 5594,
      "🌴": 5595,
      "🌹": 5596,
      "🌻": 5597,
      "🍁": 5598,
      "🍅": 5599,
      "🍉": 5600,
      "🍑": 5601,
      "🍕": 5602,
      "🍖": 5603,
      "🍗": 5604,
      "🍟": 5605,
      "🍤": 5606,
      "🍳": 5607,
      "🍴": 5608,
      "🍺": 5609,
      "🍻": 5610,
      "🎁": 5611,
      "🎃": 5612,
      "🎄": 5613,
      "🎅": 5614,
      "🎈": 5615,
      "🎉": 5616,
      "🎊": 5617,
      "🎤": 5618,
      "🎥": 5619,
      "🎬": 5620,
      "🎶": 5621,
      "🎷": 5622,
      "🎺": 5623,
      "🏀": 5624,
      "🏁": 5625,
      "🏃": 5626,
      "🏆": 5627,
      "🏈": 5628,
      "🏊": 5629,
      "🏌": 5630,
      "🏍": 5631,
      "🏏": 5632,
      "🏖": 5633,
      "🏫": 5634,
      "🏳": 5635,
      "🏻": 5636,
      "🏼": 5637,
      "🏽": 5638,
      "🏾": 5639,
      "🏿": 5640,
      "🐐": 5641,
      "🐒": 5642,
      "🐕": 5643,
      "🐘": 5644,
      "🐙": 5645,
      "🐝": 5646,
      "🐧": 5647,
      "🐱": 5648,
      "🐳": 5649,
      "🐴": 5650,
      "🐶": 5651,
      "🐸": 5652,
      "🐺": 5653,
      "🐻": 5654,
      "🐼": 5655,
      "👀": 5656,
      "👇": 5657,
      "👈": 5658,
      "👉": 5659,
      "👊": 5660,
      "👋": 5661,
      "👌": 5662,
      "👍": 5663,
      "👎": 5664,
      "👏": 5665,
      "👑": 5666,
      "👓": 5667,
      "👟": 5668,
      "👨": 5669,
      "👩": 5670,
      "👫": 5671,
      "👬": 5672,
      "👮": 5673,
      "👯": 5674,
      "👲": 5675,
      "👳": 5676,
      "👶": 5677,
      "👻": 5678,
      "👽": 5679,
      "👾": 5680,
      "💀": 5681,
      "💁": 5682,
      "💃": 5683,
      "💄": 5684,
      "💅": 5685,
      "💆": 5686,
      "💉": 5687,
      "💋": 5688,
      "💌": 5689,
      "💍": 5690,
      "💔": 5691,
      "💖": 5692,
      "💙": 5693,
      "💚": 5694,
      "💛": 5695,
      "💜": 5696,
      "💡": 5697,
      "💥": 5698,
      "💩": 5699,
      "💪": 5700,
      "💯": 5701,
      "💰": 5702,
      "💵": 5703,
      "💻": 5704,
      "💾": 5705,
      "📃": 5706,
      "📊": 5707,
      "📍": 5708,
      "📏": 5709,
      "📓": 5710,
      "📖": 5711,
      "📝": 5712,
      "📣": 5713,
      "📱": 5714,
      "📷": 5715,
      "📸": 5716,
      "📼": 5717,
      "📽": 5718,
      "🔃": 5719,
      "🔊": 5720,
      "🔍": 5721,
      "🔎": 5722,
      "🔑": 5723,
      "🔓": 5724,
      "🔥": 5725,
      "🔫": 5726,
      "🔬": 5727,
      "🔮": 5728,
      "🔴": 5729,
      "🔵": 5730,
      "🔹": 5731,
      "🔺": 5732,
      "🔽": 5733,
      "🕇": 5734,
      "🕊": 5735,
      "🕴": 5736,
      "🕺": 5737,
      "🖖": 5738,
      "🖤": 5739,
      "🗽": 5740,
      "😀": 5741,
      "😁": 5742,
      "😂": 5743,
      "😃": 5744,
      "😄": 5745,
      "😅": 5746,
      "😆": 5747,
      "😇": 5748,
      "😈": 5749,
      "😉": 5750,
      "😊": 5751,
      "😌": 5752,
      "😍": 5753,
      "😎": 5754,
      "😏": 5755,
      "😐": 5756,
      "😑": 5757,
      "😒": 5758,
      "😔": 5759,
      "😕": 5760,
      "😖": 5761,
      "😘": 5762,
      "😛": 5763,
      "😜": 5764,
      "😟": 5765,
      "😡": 5766,
      "😢": 5767,
      "😣": 5768,
      "😤": 5769,
      "😥": 5770,
      "😦": 5771,
      "😩": 5772,
      "😪": 5773,
      "😬": 5774,
      "😭": 5775,
      "😮": 5776,
      "😯": 5777,
      "😱": 5778,
      "😲": 5779,
      "😳": 5780,
      "😵": 5781,
      "😷": 5782,
      "😸": 5783,
      "😹": 5784,
      "😺": 5785,
      "😻": 5786,
      "😼": 5787,
      "😽": 5788,
      "😾": 5789,
      "😿": 5790,
      "🙀": 5791,
      "🙁": 5792,
      "🙂": 5793,
      "🙃": 5794,
      "🙄": 5795,
      "🙇": 5796,
      "🙈": 5797,
      "🙉": 5798,
      "🙊": 5799,
      "🙋": 5800,
      "🙌": 5801,
      "🙏": 5802,
      "🙰": 5803,
      "🙱": 5804,
      "🙲": 5805,
      "🙳": 5806,
      "🙴": 5807,
      "🙵": 5808,
      "🚀": 5809,
      "🚂": 5810,
      "🚃": 5811,
      "🚗": 5812,
      "🚝": 5813,
      "🚨": 5814,
      "🚴": 5815,
      "🛀": 5816,
      "🛁": 5817,
      "🛳": 5818,
      "🤓": 5819,
      "🤔": 5820,
      "🤖": 5821,
      "🤗": 5822,
      "🤘": 5823,
      "🤙": 5824,
      "🤢": 5825,
      "🤦": 5826,
      "🤫": 5827,
      "🤷": 5828,
      "🥁": 5829,
      "🥔": 5830,
      "🥖": 5831,
      "🥗": 5832,
      "🥛": 5833,
      "🥫": 5834,
      "🥶": 5835,
      "🦁": 5836,
      "🦆": 5837,
      "🦖": 5838,
      "🧐": 5839,
      "𥢂": 5840,
      "𥢃": 5841,
      "𥢄": 5842,
      "𥢈": 5843,
      "𥢊": 5844,
      "𥢍": 5845,
      "𥢎": 5846,
      "𥢏": 5847,
      "𥤐": 5848,
      "𥤚": 5849,
      "𥤟": 5850,
      "𥤦": 5851,
      "𥤪": 5852,
      "𥤫": 5853,
      "𥤯": 5854,
      "󾌵": 5855,
      "th": 5856,
      "in": 5857,
      "er": 5858,
      "an": 5859,
      "the": 5860,
      "on": 5861,
      "re": 5862,
      "at": 5863,
      "en": 5864,
      "or": 5865,
      "st": 5866,
      "ed": 5867,
      "al": 5868,
      "ou": 5869,
      "ing": 5870,
      "to": 5871,
      "is": 5872,
      "ar": 5873,
      "it": 5874,
      "es": 5875,
      "of": 5876,
      "and": 5877,
      "as": 5878,
      "ic": 5879,
      "le": 5880,
      "ion": 5881,
      "om": 5882,
      "he": 5883,
      "ent": 5884,
      "se": 5885,
      "il": 5886,
      "ac": 5887,
      "be": 5888,
      "ve": 5889,
      "ly": 5890,
      "id": 5891,
      "ro": 5892,
      "ad": 5893,
      "for": 5894,
      "am": 5895,
      "that": 5896,
      "ch": 5897,
      "ow": 5898,
      "ay": 5899,
      "wh": 5900,
      "im": 5901,
      "ol": 5902,
      "ig": 5903,
      "ver": 5904,
      "ot": 5905,
      "ut": 5906,
      "un": 5907,
      "et": 5908,
      "ith": 5909,
      "ur": 5910,
      "ir": 5911,
      "de": 5912,
      "ce": 5913,
      "ation": 5914,
      "ct": 5915,
      "are": 5916,
      "ab": 5917,
      "ag": 5918,
      "ter": 5919,
      "con": 5920,
      "The": 5921,
      "with": 5922,
      "us": 5923,
      "li": 5924,
      "ers": 5925,
      "ere": 5926,
      "op": 5927,
      "el": 5928,
      "com": 5929,
      "mo": 5930,
      "ha": 5931,
      "ill": 5932,
      "su": 5933,
      "ne": 5934,
      "you": 5935,
      "was": 5936,
      "ke": 5937,
      "ld": 5938,
      "all": 5939,
      "pe": 5940,
      "out": 5941,
      "pl": 5942,
      "pro": 5943,
      "ri": 5944,
      "ate": 5945,
      "ul": 5946,
      "res": 5947,
      "we": 5948,
      "em": 5949,
      "ex": 5950,
      "ap": 5951,
      "fr": 5952,
      "lo": 5953,
      "igh": 5954,
      "ain": 5955,
      "oun": 5956,
      "ment": 5957,
      "tr": 5958,
      "sh": 5959,
      "one": 5960,
      "so": 5961,
      "if": 5962,
      "by": 5963,
      "his": 5964,
      "our": 5965,
      "ist": 5966,
      "not": 5967,
      "art": 5968,
      "ess": 5969,
      "ant": 5970,
      "have": 5971,
      "ity": 5972,
      "ould": 5973,
      "po": 5974,
      "ther": 5975,
      "te": 5976,
      "from": 5977,
      "um": 5978,
      "this": 5979,
      "sa": 5980,
      "qu": 5981,
      "ive": 5982,
      "act": 5983,
      "ight": 5984,
      "ust": 5985,
      "go": 5986,
      "per": 5987,
      "ort": 5988,
      "wor": 5989,
      "ast": 5990,
      "end": 5991,
      "ge": 5992,
      "od": 5993,
      "has": 5994,
      "fe": 5995,
      "ack": 5996,
      "up": 5997,
      "20": 5998,
      "do": 5999,
      "ies": 6000,
      "ally": 6001,
      "but": 6002,
      "ome": 6003,
      "ear": 6004,
      "gh": 6005,
      "In": 6006,
      "ard": 6007,
      "cl": 6008,
      "any": 6009,
      "co": 6010,
      "me": 6011,
      "ak": 6012,
      "can": 6013,
      "they": 6014,
      "will": 6015,
      "au": 6016,
      "pr": 6017,
      "said": 6018,
      "ci": 6019,
      "ind": 6020,
      "gr": 6021,
      "ans": 6022,
      "ough": 6023,
      "who": 6024,
      "port": 6025,
      "ich": 6026,
      "ame": 6027,
      "Th": 6028,
      "der": 6029,
      "iv": 6030,
      "ev": 6031,
      "ide": 6032,
      "their": 6033,
      "ok": 6034,
      "now": 6035,
      "more": 6036,
      "ice": 6037,
      "af": 6038,
      "tim": 6039,
      "00": 6040,
      "ong": 6041,
      "est": 6042,
      "age": 6043,
      "ound": 6044,
      "ous": 6045,
      "ure": 6046,
      "ine": 6047,
      "bl": 6048,
      "ud": 6049,
      "ore": 6050,
      "ions": 6051,
      "about": 6052,
      "bo": 6053,
      "some": 6054,
      "ber": 6055,
      "no": 6056,
      "had": 6057,
      "off": 6058,
      "ated": 6059,
      "ell": 6060,
      "It": 6061,
      "its": 6062,
      "day": 6063,
      "ck": 6064,
      "year": 6065,
      "ire": 6066,
      "ie": 6067,
      "cre": 6068,
      "int": 6069,
      "which": 6070,
      "were": 6071,
      "ep": 6072,
      "would": 6073,
      "able": 6074,
      "thing": 6075,
      "way": 6076,
      "cr": 6077,
      "ia": 6078,
      "ake": 6079,
      "like": 6080,
      "ass": 6081,
      "man": 6082,
      "comp": 6083,
      "ence": 6084,
      "very": 6085,
      "her": 6086,
      "ll": 6087,
      "own": 6088,
      "other": 6089,
      "get": 6090,
      "been": 6091,
      "iz": 6092,
      "av": 6093,
      "work": 6094,
      "ary": 6095,
      "ign": 6096,
      "ach": 6097,
      "An": 6098,
      "pre": 6099,
      "over": 6100,
      "new": 6101,
      "ace": 6102,
      "ip": 6103,
      "ite": 6104,
      "201": 6105,
      "sp": 6106,
      "str": 6107,
      "cont": 6108,
      "St": 6109,
      "part": 6110,
      "Wh": 6111,
      "form": 6112,
      "dis": 6113,
      "ue": 6114,
      "ail": 6115,
      "pres": 6116,
      "ile": 6117,
      "my": 6118,
      "than": 6119,
      "aw": 6120,
      "there": 6121,
      "ople": 6122,
      "pos": 6123,
      "ish": 6124,
      "ts": 6125,
      "cent": 6126,
      "ser": 6127,
      "time": 6128,
      "ical": 6129,
      "what": 6130,
      "ial": 6131,
      "also": 6132,
      "them": 6133,
      "just": 6134,
      "Ch": 6135,
      "when": 6136,
      "your": 6137,
      "play": 6138,
      "ef": 6139,
      "br": 6140,
      "people": 6141,
      "fir": 6142,
      "He": 6143,
      "ble": 6144,
      "19": 6145,
      "att": 6146,
      "cor": 6147,
      "ick": 6148,
      "tw": 6149,
      "fer": 6150,
      "inter": 6151,
      "pol": 6152,
      "ations": 6153,
      "pt": 6154,
      "du": 6155,
      "ens": 6156,
      "say": 6157,
      "low": 6158,
      "ance": 6159,
      "ction": 6160,
      "ren": 6161,
      "We": 6162,
      "ree": 6163,
      "ase": 6164,
      "into": 6165,
      "mon": 6166,
      "ang": 6167,
      "ink": 6168,
      ".”": 6169,
      "mer": 6170,
      "ty": 6171,
      "old": 6172,
      "vel": 6173,
      "ark": 6174,
      "ory": 6175,
      "most": 6176,
      "ob": 6177,
      "ian": 6178,
      "coun": 6179,
      "ident": 6180,
      "back": 6181,
      "how": 6182,
      "ition": 6183,
      "cau": 6184,
      "ph": 6185,
      "know": 6186,
      "she": 6187,
      "ates": 6188,
      "spe": 6189,
      "ade": 6190,
      "ors": 6191,
      "ra": 6192,
      "amp": 6193,
      "after": 6194,
      "og": 6195,
      "ubl": 6196,
      "cess": 6197,
      "This": 6198,
      "cause": 6199,
      "first": 6200,
      "ose": 6201,
      "him": 6202,
      "ful": 6203,
      "could": 6204,
      "vers": 6205,
      "pp": 6206,
      "min": 6207,
      "But": 6208,
      ",”": 6209,
      "cur": 6210,
      "sel": 6211,
      "only": 6212,
      "fore": 6213,
      "two": 6214,
      "ning": 6215,
      "row": 6216,
      "ild": 6217,
      "enc": 6218,
      "ting": 6219,
      "ater": 6220,
      "Un": 6221,
      "bet": 6222,
      "ry": 6223,
      "ious": 6224,
      "med": 6225,
      "And": 6226,
      ".\"": 6227,
      "sy": 6228,
      "des": 6229,
      "comm": 6230,
      "under": 6231,
      "don": 6232,
      "ew": 6233,
      "fin": 6234,
      "where": 6235,
      "did": 6236,
      "see": 6237,
      "add": 6238,
      "bu": 6239,
      "oc": 6240,
      "ict": 6241,
      "again": 6242,
      "right": 6243,
      "ents": 6244,
      "even": 6245,
      "read": 6246,
      "gu": 6247,
      "os": 6248,
      "want": 6249,
      "use": 6250,
      "reg": 6251,
      "come": 6252,
      "ult": 6253,
      "because": 6254,
      "ason": 6255,
      "Tr": 6256,
      "ating": 6257,
      "si": 6258,
      "years": 6259,
      "ual": 6260,
      "ublic": 6261,
      "As": 6262,
      "need": 6263,
      "call": 6264,
      "rough": 6265,
      "fl": 6266,
      "ving": 6267,
      "--": 6268,
      "ect": 6269,
      "ress": 6270,
      "ved": 6271,
      "many": 6272,
      "dr": 6273,
      "reat": 6274,
      "ever": 6275,
      "col": 6276,
      ",\"": 6277,
      "10": 6278,
      "down": 6279,
      "every": 6280,
      "used": 6281,
      "make": 6282,
      "look": 6283,
      "then": 6284,
      "ener": 6285,
      "urn": 6286,
      "sc": 6287,
      "land": 6288,
      "try": 6289,
      "cial": 6290,
      "these": 6291,
      "incl": 6292,
      "ins": 6293,
      "air": 6294,
      "uch": 6295,
      "dif": 6296,
      "iss": 6297,
      "ho": 6298,
      "being": 6299,
      "cord": 6300,
      "cer": 6301,
      "think": 6302,
      "ational": 6303,
      "Re": 6304,
      "leg": 6305,
      "hel": 6306,
      "itt": 6307,
      "though": 6308,
      "ments": 6309,
      "may": 6310,
      "vie": 6311,
      "ath": 6312,
      "ank": 6313,
      "rel": 6314,
      "lect": 6315,
      "ek": 6316,
      "..": 6317,
      "arch": 6318,
      "well": 6319,
      "point": 6320,
      "ise": 6321,
      "ject": 6322,
      "200": 6323,
      "long": 6324,
      "oup": 6325,
      "self": 6326,
      "through": 6327,
      "De": 6328,
      "state": 6329,
      "ced": 6330,
      "set": 6331,
      "ased": 6332,
      "last": 6333,
      "ative": 6334,
      "Amer": 6335,
      "red": 6336,
      "less": 6337,
      "cho": 6338,
      "Americ": 6339,
      "should": 6340,
      "ited": 6341,
      "New": 6342,
      "ump": 6343,
      "aking": 6344,
      "pect": 6345,
      ").": 6346,
      "ann": 6347,
      "those": 6348,
      "show": 6349,
      "much": 6350,
      "high": 6351,
      "let": 6352,
      "ash": 6353,
      "cle": 6354,
      "ug": 6355,
      "ities": 6356,
      "rem": 6357,
      "ven": 6358,
      "You": 6359,
      "ics": 6360,
      "imp": 6361,
      "gover": 6362,
      "uring": 6363,
      "atch": 6364,
      "tain": 6365,
      "If": 6366,
      "going": 6367,
      "oy": 6368,
      "does": 6369,
      "For": 6370,
      "govern": 6371,
      "fun": 6372,
      "di": 6373,
      "car": 6374,
      "tal": 6375,
      "before": 6376,
      "Al": 6377,
      "stand": 6378,
      "ask": 6379,
      "wr": 6380,
      "start": 6381,
      "vis": 6382,
      "put": 6383,
      "pers": 6384,
      "als": 6385,
      "fect": 6386,
      "ces": 6387,
      "ma": 6388,
      "report": 6389,
      "ince": 6390,
      "ves": 6391,
      "while": 6392,
      "),": 6393,
      "made": 6394,
      "team": 6395,
      "sur": 6396,
      "led": 6397,
      "such": 6398,
      "cond": 6399,
      "lar": 6400,
      "view": 6401,
      "ss": 6402,
      "So": 6403,
      "world": 6404,
      "ange": 6405,
      "game": 6406,
      "pon": 6407,
      "dec": 6408,
      "ms": 6409,
      "turn": 6410,
      "lead": 6411,
      "ific": 6412,
      "sup": 6413,
      "ily": 6414,
      "produ": 6415,
      "cons": 6416,
      "Con": 6417,
      "tri": 6418,
      "ings": 6419,
      "good": 6420,
      "stem": 6421,
      "sub": 6422,
      "They": 6423,
      "che": 6424,
      "stud": 6425,
      "ular": 6426,
      "char": 6427,
      "ys": 6428,
      "week": 6429,
      "ually": 6430,
      "les": 6431,
      "ility": 6432,
      "ward": 6433,
      "law": 6434,
      "includ": 6435,
      "gan": 6436,
      "ton": 6437,
      "against": 6438,
      "Fr": 6439,
      "There": 6440,
      "app": 6441,
      "still": 6442,
      "ood": 6443,
      "ext": 6444,
      "fact": 6445,
      "here": 6446,
      "run": 6447,
      "help": 6448,
      "test": 6449,
      "Ar": 6450,
      "take": 6451,
      "line": 6452,
      "ner": 6453,
      "Se": 6454,
      "sm": 6455,
      "real": 6456,
      "ower": 6457,
      "ween": 6458,
      "Com": 6459,
      "differ": 6460,
      "says": 6461,
      "illion": 6462,
      "head": 6463,
      "offic": 6464,
      "olog": 6465,
      "num": 6466,
      "cut": 6467,
      "la": 6468,
      "quest": 6469,
      "ism": 6470,
      "government": 6471,
      "000": 6472,
      "That": 6473,
      "clo": 6474,
      "cour": 6475,
      "ub": 6476,
      "same": 6477,
      "sign": 6478,
      "fi": 6479,
      "between": 6480,
      "hand": 6481,
      "val": 6482,
      "ollow": 6483,
      "serv": 6484,
      "No": 6485,
      "ists": 6486,
      "cap": 6487,
      "Is": 6488,
      "war": 6489,
      "system": 6490,
      "trans": 6491,
      "eng": 6492,
      "around": 6493,
      ".[": 6494,
      "son": 6495,
      "three": 6496,
      "ames": 6497,
      "person": 6498,
      "ax": 6499,
      "Le": 6500,
      "velop": 6501,
      "Br": 6502,
      "book": 6503,
      "fam": 6504,
      "ds": 6505,
      "inst": 6506,
      "side": 6507,
      "io": 6508,
      "mem": 6509,
      "On": 6510,
      "ters": 6511,
      "public": 6512,
      "group": 6513,
      "ten": 6514,
      "ures": 6515,
      "support": 6516,
      "uss": 6517,
      "vest": 6518,
      "ouse": 6519,
      "ff": 6520,
      "Trump": 6521,
      "got": 6522,
      "prov": 6523,
      "found": 6524,
      "really": 6525,
      "vi": 6526,
      "wom": 6527,
      "sure": 6528,
      "ave": 6529,
      "happ": 6530,
      "ways": 6531,
      "mark": 6532,
      "press": 6533,
      "pri": 6534,
      "sul": 6535,
      "peri": 6536,
      "lot": 6537,
      "det": 6538,
      "month": 6539,
      "issu": 6540,
      "fil": 6541,
      "12": 6542,
      "ost": 6543,
      "vol": 6544,
      "both": 6545,
      "15": 6546,
      "US": 6547,
      "gest": 6548,
      "irect": 6549,
      "find": 6550,
      "power": 6551,
      "def": 6552,
      "life": 6553,
      "ale": 6554,
      "Jo": 6555,
      "big": 6556,
      "ense": 6557,
      "aren": 6558,
      "cept": 6559,
      "alth": 6560,
      "develop": 6561,
      "miss": 6562,
      "ages": 6563,
      "par": 6564,
      "ices": 6565,
      "polit": 6566,
      "ship": 6567,
      "top": 6568,
      "cal": 6569,
      "during": 6570,
      "too": 6571,
      "ied": 6572,
      "respon": 6573,
      "told": 6574,
      "gener": 6575,
      "ng": 6576,
      "How": 6577,
      "xt": 6578,
      "18": 6579,
      "beli": 6580,
      "follow": 6581,
      "ft": 6582,
      "Cl": 6583,
      "net": 6584,
      "bre": 6585,
      "stru": 6586,
      "appe": 6587,
      "ically": 6588,
      "came": 6589,
      "season": 6590,
      "ared": 6591,
      "ines": 6592,
      "incre": 6593,
      "place": 6594,
      "contin": 6595,
      "since": 6596,
      "az": 6597,
      "list": 6598,
      "Be": 6599,
      "light": 6600,
      "few": 6601,
      "expl": 6602,
      "pass": 6603,
      "rest": 6604,
      "national": 6605,
      "ider": 6606,
      "aim": 6607,
      "bus": 6608,
      "cording": 6609,
      "Ad": 6610,
      "bers": 6611,
      "using": 6612,
      "ars": 6613,
      "akes": 6614,
      "allow": 6615,
      "blo": 6616,
      "kill": 6617,
      "vot": 6618,
      "ah": 6619,
      "far": 6620,
      "chool": 6621,
      "11": 6622,
      "ime": 6623,
      "something": 6624,
      "commun": 6625,
      "unt": 6626,
      "ris": 6627,
      "At": 6628,
      "sol": 6629,
      "ution": 6630,
      "gy": 6631,
      "giv": 6632,
      "care": 6633,
      "invest": 6634,
      "vent": 6635,
      "ues": 6636,
      "order": 6637,
      "different": 6638,
      "ata": 6639,
      "rele": 6640,
      "30": 6641,
      "oot": 6642,
      "clear": 6643,
      "open": 6644,
      "another": 6645,
      "ized": 6646,
      "ready": 6647,
      "things": 6648,
      "Sh": 6649,
      "bit": 6650,
      "ody": 6651,
      "post": 6652,
      "each": 6653,
      "camp": 6654,
      "cover": 6655,
      "When": 6656,
      "ivers": 6657,
      "called": 6658,
      "never": 6659,
      "rent": 6660,
      "second": 6661,
      "gram": 6662,
      "home": 6663,
      "possi": 6664,
      "might": 6665,
      "child": 6666,
      "What": 6667,
      "search": 6668,
      "best": 6669,
      "ush": 6670,
      "ement": 6671,
      "ted": 6672,
      "ants": 6673,
      "iness": 6674,
      "contro": 6675,
      "atter": 6676,
      "ize": 6677,
      "next": 6678,
      "ross": 6679,
      "requ": 6680,
      "por": 6681,
      "ness": 6682,
      "build": 6683,
      "dist": 6684,
      "ature": 6685,
      "Pro": 6686,
      "hum": 6687,
      "pay": 6688,
      "including": 6689,
      "feel": 6690,
      "direct": 6691,
      "move": 6692,
      "change": 6693,
      "ittle": 6694,
      "sing": 6695,
      "seem": 6696,
      "percent": 6697,
      "She": 6698,
      "ger": 6699,
      "ital": 6700,
      "inform": 6701,
      "pop": 6702,
      "plan": 6703,
      "appro": 6704,
      "interest": 6705,
      "oper": 6706,
      "lim": 6707,
      "conom": 6708,
      "resul": 6709,
      "ired": 6710,
      "level": 6711,
      "import": 6712,
      "resident": 6713,
      "number": 6714,
      "ps": 6715,
      "oth": 6716,
      "hard": 6717,
      "won": 6718,
      "case": 6719,
      "without": 6720,
      "million": 6721,
      "great": 6722,
      "50": 6723,
      "present": 6724,
      "soci": 6725,
      "king": 6726,
      "ball": 6727,
      "bro": 6728,
      "ele": 6729,
      "ama": 6730,
      "proble": 6731,
      "four": 6732,
      "men": 6733,
      "cy": 6734,
      "ately": 6735,
      "country": 6736,
      "tech": 6737,
      "mar": 6738,
      "ets": 6739,
      "sum": 6740,
      "American": 6741,
      "Rep": 6742,
      "oney": 6743,
      "riend": 6744,
      "dri": 6745,
      "ier": 6746,
      "sit": 6747,
      "__": 6748,
      "prom": 6749,
      "ably": 6750,
      "uro": 6751,
      "partic": 6752,
      "ished": 6753,
      "better": 6754,
      "recent": 6755,
      "little": 6756,
      "win": 6757,
      "keep": 6758,
      "mil": 6759,
      "cri": 6760,
      "ern": 6761,
      "ling": 6762,
      "gre": 6763,
      "Mar": 6764,
      "main": 6765,
      "ons": 6766,
      "16": 6767,
      "class": 6768,
      "eld": 6769,
      "prof": 6770,
      "iting": 6771,
      "tra": 6772,
      "To": 6773,
      "attack": 6774,
      "ral": 6775,
      "left": 6776,
      "ency": 6777,
      "dep": 6778,
      "fic": 6779,
      "Ob": 6780,
      "ety": 6781,
      "uck": 6782,
      "grow": 6783,
      "jor": 6784,
      "hist": 6785,
      "ese": 6786,
      "Af": 6787,
      "den": 6788,
      "organ": 6789,
      "police": 6790,
      "chang": 6791,
      "claim": 6792,
      "didn": 6793,
      "14": 6794,
      "econom": 6795,
      "effect": 6796,
      "ina": 6797,
      "friend": 6798,
      "inal": 6799,
      "Pr": 6800,
      "ord": 6801,
      "free": 6802,
      "nor": 6803,
      "school": 6804,
      "wit": 6805,
      "ont": 6806,
      "13": 6807,
      "del": 6808,
      "vious": 6809,
      "data": 6810,
      "program": 6811,
      "met": 6812,
      "body": 6813,
      "spec": 6814,
      "based": 6815,
      "near": 6816,
      "ather": 6817,
      "key": 6818,
      "ned": 6819,
      "process": 6820,
      "thor": 6821,
      "ork": 6822,
      "ret": 6823,
      "reason": 6824,
      "atic": 6825,
      "expect": 6826,
      "ional": 6827,
      "ability": 6828,
      "company": 6829,
      "pur": 6830,
      "comple": 6831,
      "bal": 6832,
      "eas": 6833,
      "Can": 6834,
      "night": 6835,
      "current": 6836,
      "Nor": 6837,
      "var": 6838,
      "minist": 6839,
      "rist": 6840,
      "ator": 6841,
      "17": 6842,
      "tell": 6843,
      "president": 6844,
      "ending": 6845,
      "coming": 6846,
      "away": 6847,
      "hold": 6848,
      "ploy": 6849,
      "tem": 6850,
      "later": 6851,
      "ided": 6852,
      "One": 6853,
      "ration": 6854,
      "design": 6855,
      "small": 6856,
      "United": 6857,
      "official": 6858,
      "ca": 6859,
      "Co": 6860,
      "ref": 6861,
      "face": 6862,
      "ats": 6863,
      "women": 6864,
      "aph": 6865,
      "action": 6866,
      "Ro": 6867,
      "ended": 6868,
      "already": 6869,
      "city": 6870,
      "rece": 6871,
      "hn": 6872,
      "story": 6873,
      "Bl": 6874,
      "money": 6875,
      "imes": 6876,
      "experi": 6877,
      "health": 6878,
      "ude": 6879,
      "ks": 6880,
      "All": 6881,
      "vir": 6882,
      "techn": 6883,
      "business": 6884,
      "information": 6885,
      "why": 6886,
      "simp": 6887,
      "making": 6888,
      "always": 6889,
      "sever": 6890,
      "major": 6891,
      "ives": 6892,
      "und": 6893,
      "enter": 6894,
      "Gr": 6895,
      "edit": 6896,
      "ards": 6897,
      "hop": 6898,
      "ones": 6899,
      "ised": 6900,
      "mocr": 6901,
      "tax": 6902,
      "consider": 6903,
      "ric": 6904,
      "adv": 6905,
      "bed": 6906,
      "199": 6907,
      "Or": 6908,
      "Mr": 6909,
      "comes": 6910,
      "kind": 6911,
      "elect": 6912,
      "aign": 6913,
      "project": 6914,
      "cost": 6915,
      "fort": 6916,
      "days": 6917,
      "hal": 6918,
      "ute": 6919,
      "ik": 6920,
      "bor": 6921,
      "past": 6922,
      "whe": 6923,
      "job": 6924,
      "Col": 6925,
      "name": 6926,
      "ology": 6927,
      "ago": 6928,
      "must": 6929,
      "ged": 6930,
      "important": 6931,
      "cu": 6932,
      "ample": 6933,
      "large": 6934,
      "known": 6935,
      "happen": 6936,
      "Pl": 6937,
      "25": 6938,
      "suc": 6939,
      "plic": 6940,
      "qual": 6941,
      "Li": 6942,
      "ains": 6943,
      "unch": 6944,
      "ural": 6945,
      "fac": 6946,
      "Go": 6947,
      "working": 6948,
      "John": 6949,
      "exp": 6950,
      "late": 6951,
      "ey": 6952,
      "doesn": 6953,
      "cas": 6954,
      "May": 6955,
      "possible": 6956,
      "iversity": 6957,
      "outh": 6958,
      "...": 6959,
      "least": 6960,
      "polic": 6961,
      "ror": 6962,
      "gin": 6963,
      "news": 6964,
      "position": 6965,
      "campaign": 6966,
      "mean": 6967,
      "family": 6968,
      "que": 6969,
      "likely": 6970,
      "human": 6971,
      "Republic": 6972,
      "eder": 6973,
      "acy": 6974,
      "sk": 6975,
      "With": 6976,
      "ision": 6977,
      "IS": 6978,
      "ained": 6979,
      "ides": 6980,
      "enough": 6981,
      "site": 6982,
      "record": 6983,
      "vide": 6984,
      "Car": 6985,
      "until": 6986,
      "ury": 6987,
      "water": 6988,
      "Euro": 6989,
      "deal": 6990,
      "former": 6991,
      "Ex": 6992,
      "ney": 6993,
      "curity": 6994,
      "political": 6995,
      "Sy": 6996,
      "ribut": 6997,
      "ences": 6998,
      "plac": 6999,
      "certain": 7000,
      "ib": 7001,
      "ians": 7002,
      "lear": 7003,
      "ple": 7004,
      "ix": 7005,
      "posed": 7006,
      "nam": 7007,
      "ground": 7008,
      "ste": 7009,
      "actually": 7010,
      "took": 7011,
      "room": 7012,
      "research": 7013,
      "prote": 7014,
      "often": 7015,
      "Mc": 7016,
      "sim": 7017,
      "sci": 7018,
      "ird": 7019,
      "tract": 7020,
      "Im": 7021,
      "full": 7022,
      "times": 7023,
      "become": 7024,
      "ley": 7025,
      "jo": 7026,
      "give": 7027,
      "gen": 7028,
      "President": 7029,
      "stop": 7030,
      "pot": 7031,
      "ster": 7032,
      "ined": 7033,
      "tar": 7034,
      "market": 7035,
      "Don": 7036,
      "Ind": 7037,
      "ls": 7038,
      "hour": 7039,
      "return": 7040,
      "Ac": 7041,
      "bar": 7042,
      "Man": 7043,
      "doing": 7044,
      "stre": 7045,
      "nal": 7046,
      "non": 7047,
      "went": 7048,
      "aring": 7049,
      "Ph": 7050,
      "ru": 7051,
      "games": 7052,
      "After": 7053,
      "according": 7054,
      "early": 7055,
      "aid": 7056,
      "social": 7057,
      "Mo": 7058,
      "seen": 7059,
      "aining": 7060,
      "having": 7061,
      "media": 7062,
      "!!": 7063,
      "ben": 7064,
      "sex": 7065,
      "charac": 7066,
      "mor": 7067,
      "Russ": 7068,
      "sug": 7069,
      "Pol": 7070,
      "product": 7071,
      "une": 7072,
      "Ste": 7073,
      "bas": 7074,
      "Inter": 7075,
      "RE": 7076,
      "crit": 7077,
      "event": 7078,
      "five": 7079,
      "Obama": 7080,
      "eve": 7081,
      "Mon": 7082,
      "course": 7083,
      "struct": 7084,
      "24": 7085,
      "Europe": 7086,
      "ization": 7087,
      "York": 7088,
      "author": 7089,
      "mber": 7090,
      "ither": 7091,
      "force": 7092,
      "ying": 7093,
      "employ": 7094,
      "ought": 7095,
      "graph": 7096,
      "question": 7097,
      "uture": 7098,
      "AT": 7099,
      "mid": 7100,
      "today": 7101,
      "idence": 7102,
      "several": 7103,
      "count": 7104,
      "tion": 7105,
      "stit": 7106,
      "wer": 7107,
      "icle": 7108,
      "success": 7109,
      "ran": 7110,
      "aken": 7111,
      "fight": 7112,
      "members": 7113,
      "meet": 7114,
      "State": 7115,
      "ories": 7116,
      "half": 7117,
      "Sp": 7118,
      "children": 7119,
      "Not": 7120,
      "whether": 7121,
      "activ": 7122,
      "uary": 7123,
      "milit": 7124,
      "players": 7125,
      "ensive": 7126,
      "sent": 7127,
      "aged": 7128,
      "tt": 7129,
      "asked": 7130,
      "vil": 7131,
      "short": 7132,
      "example": 7133,
      "priv": 7134,
      "once": 7135,
      "along": 7136,
      "close": 7137,
      "fund": 7138,
      "local": 7139,
      "invol": 7140,
      "States": 7141,
      "ential": 7142,
      "done": 7143,
      "watch": 7144,
      "cast": 7145,
      "understand": 7146,
      "trad": 7147,
      "avail": 7148,
      "offer": 7149,
      "viol": 7150,
      "ali": 7151,
      "ped": 7152,
      "West": 7153,
      "100": 7154,
      "Coun": 7155,
      "within": 7156,
      "However": 7157,
      "University": 7158,
      "concer": 7159,
      "2016": 7160,
      "young": 7161,
      "mand": 7162,
      "months": 7163,
      "ron": 7164,
      "40": 7165,
      "house": 7166,
      "means": 7167,
      "thought": 7168,
      "aff": 7169,
      "orig": 7170,
      "pat": 7171,
      "ER": 7172,
      "My": 7173,
      "gress": 7174,
      "investig": 7175,
      "among": 7176,
      "given": 7177,
      "Wor": 7178,
      "fail": 7179,
      "fig": 7180,
      "mus": 7181,
      "sl": 7182,
      "issue": 7183,
      "web": 7184,
      "uc": 7185,
      "gl": 7186,
      "ified": 7187,
      "ilar": 7188,
      "ulation": 7189,
      "While": 7190,
      "gether": 7191,
      "ient": 7192,
      "sour": 7193,
      "problem": 7194,
      "ots": 7195,
      "ivid": 7196,
      "future": 7197,
      "Christ": 7198,
      "augh": 7199,
      "yet": 7200,
      "hy": 7201,
      "IN": 7202,
      "reach": 7203,
      "En": 7204,
      "video": 7205,
      "prob": 7206,
      "ague": 7207,
      "legal": 7208,
      "community": 7209,
      "ederal": 7210,
      "field": 7211,
      "strong": 7212,
      "Democr": 7213,
      "across": 7214,
      "step": 7215,
      "depend": 7216,
      "ison": 7217,
      "House": 7218,
      "Bo": 7219,
      "vert": 7220,
      "getting": 7221,
      "Sen": 7222,
      "acc": 7223,
      "suggest": 7224,
      "party": 7225,
      "Dr": 7226,
      "dro": 7227,
      "ane": 7228,
      "ns": 7229,
      "oto": 7230,
      "Min": 7231,
      "spo": 7232,
      "Do": 7233,
      "others": 7234,
      "reported": 7235,
      "makes": 7236,
      "announ": 7237,
      "2015": 7238,
      "ech": 7239,
      "bi": 7240,
      "itive": 7241,
      "wal": 7242,
      "descri": 7243,
      "ators": 7244,
      "gun": 7245,
      "ially": 7246,
      "inc": 7247,
      "mit": 7248,
      "death": 7249,
      "indust": 7250,
      "believe": 7251,
      "Ger": 7252,
      "together": 7253,
      "ium": 7254,
      "ister": 7255,
      "available": 7256,
      "//": 7257,
      "fall": 7258,
      "pret": 7259,
      "Some": 7260,
      "22": 7261,
      "love": 7262,
      "ible": 7263,
      "empt": 7264,
      "control": 7265,
      "ove": 7266,
      "ler": 7267,
      "60": 7268,
      "ony": 7269,
      "particular": 7270,
      "hind": 7271,
      "ising": 7272,
      "started": 7273,
      "looking": 7274,
      "ington": 7275,
      "series": 7276,
      "nes": 7277,
      "aster": 7278,
      "ived": 7279,
      "urther": 7280,
      "tow": 7281,
      "mom": 7282,
      "foot": 7283,
      "ured": 7284,
      "court": 7285,
      "Now": 7286,
      "iter": 7287,
      "America": 7288,
      "imm": 7289,
      "deb": 7290,
      "Canad": 7291,
      "front": 7292,
      "Mic": 7293,
      "ond": 7294,
      "foc": 7295,
      "har": 7296,
      "pract": 7297,
      "live": 7298,
      "complete": 7299,
      "disc": 7300,
      "selves": 7301,
      "access": 7302,
      "dev": 7303,
      "almost": 7304,
      "mind": 7305,
      "2014": 7306,
      "bur": 7307,
      "Ser": 7308,
      "tom": 7309,
      "rul": 7310,
      "cell": 7311,
      "kes": 7312,
      "Just": 7313,
      "history": 7314,
      "trying": 7315,
      "six": 7316,
      "AN": 7317,
      "bad": 7318,
      "ances": 7319,
      "mission": 7320,
      "ails": 7321,
      "proper": 7322,
      "----": 7323,
      "conne": 7324,
      "These": 7325,
      "film": 7326,
      "talk": 7327,
      "War": 7328,
      "hip": 7329,
      "uses": 7330,
      "wa": 7331,
      "Fe": 7332,
      "Ju": 7333,
      "mal": 7334,
      "following": 7335,
      "gn": 7336,
      "anal": 7337,
      "ww": 7338,
      "cop": 7339,
      "taken": 7340,
      "security": 7341,
      "80": 7342,
      "ination": 7343,
      "experience": 7344,
      "isn": 7345,
      "Har": 7346,
      "added": 7347,
      "Bar": 7348,
      "hit": 7349,
      "food": 7350,
      "compan": 7351,
      "block": 7352,
      "compet": 7353,
      "area": 7354,
      "idea": 7355,
      "round": 7356,
      "individ": 7357,
      ".,": 7358,
      "ustom": 7359,
      "itions": 7360,
      "loc": 7361,
      "aft": 7362,
      "Eng": 7363,
      "itional": 7364,
      "ald": 7365,
      "space": 7366,
      "player": 7367,
      "ON": 7368,
      "publ": 7369,
      "Sun": 7370,
      "anything": 7371,
      "fully": 7372,
      "black": 7373,
      "23": 7374,
      "Isra": 7375,
      "His": 7376,
      "Me": 7377,
      "North": 7378,
      "dom": 7379,
      "By": 7380,
      "fire": 7381,
      "Res": 7382,
      "Brit": 7383,
      "Gu": 7384,
      "supp": 7385,
      "wanted": 7386,
      "ock": 7387,
      "break": 7388,
      "cult": 7389,
      "saying": 7390,
      "Ge": 7391,
      "argu": 7392,
      "defin": 7393,
      "fav": 7394,
      "aper": 7395,
      "sty": 7396,
      "bill": 7397,
      "behind": 7398,
      "threat": 7399,
      "ene": 7400,
      "pick": 7401,
      "exist": 7402,
      "photo": 7403,
      "mess": 7404,
      "individual": 7405,
      "sof": 7406,
      "entire": 7407,
      "aver": 7408,
      "similar": 7409,
      "taking": 7410,
      "ams": 7411,
      "pen": 7412,
      "cially": 7413,
      "inton": 7414,
      "omet": 7415,
      "ecut": 7416,
      "cret": 7417,
      "rather": 7418,
      "cing": 7419,
      "either": 7420,
      "sal": 7421,
      "military": 7422,
      "bank": 7423,
      "reed": 7424,
      "ott": 7425,
      "Dav": 7426,
      "ference": 7427,
      "wide": 7428,
      "date": 7429,
      "road": 7430,
      "previous": 7431,
      "stri": 7432,
      "flu": 7433,
      "works": 7434,
      "policy": 7435,
      "21": 7436,
      "tries": 7437,
      "City": 7438,
      "board": 7439,
      "Dep": 7440,
      "uge": 7441,
      "special": 7442,
      "Ed": 7443,
      "bring": 7444,
      "single": 7445,
      "impro": 7446,
      "quick": 7447,
      "ior": 7448,
      "someone": 7449,
      "rad": 7450,
      "World": 7451,
      "discuss": 7452,
      "version": 7453,
      "mult": 7454,
      "National": 7455,
      "hom": 7456,
      "vo": 7457,
      "scre": 7458,
      "Part": 7459,
      "ids": 7460,
      "roll": 7461,
      "colle": 7462,
      "mass": 7463,
      "study": 7464,
      "woman": 7465,
      "ges": 7466,
      "ched": 7467,
      "2013": 7468,
      "paren": 7469,
      "glo": 7470,
      "lier": 7471,
      "Aust": 7472,
      "band": 7473,
      "check": 7474,
      "gets": 7475,
      "Med": 7476,
      "sen": 7477,
      "points": 7478,
      "nothing": 7479,
      "sus": 7480,
      "redu": 7481,
      "Clinton": 7482,
      "due": 7483,
      "Sc": 7484,
      "Wash": 7485,
      "dest": 7486,
      "dam": 7487,
      "probably": 7488,
      "imate": 7489,
      "else": 7490,
      "comb": 7491,
      "rights": 7492,
      "viron": 7493,
      "AR": 7494,
      "create": 7495,
      "Jan": 7496,
      "benef": 7497,
      "iday": 7498,
      "BC": 7499,
      "load": 7500,
      "protect": 7501,
      "result": 7502,
      "equ": 7503,
      "AS": 7504,
      "phone": 7505,
      "ull": 7506,
      "nat": 7507,
      "manag": 7508,
      "Fl": 7509,
      "wards": 7510,
      "ention": 7511,
      "amoun": 7512,
      "arr": 7513,
      "box": 7514,
      "issues": 7515,
      "uff": 7516,
      "Wil": 7517,
      "ded": 7518,
      "2017": 7519,
      "decl": 7520,
      "exper": 7521,
      "rote": 7522,
      "third": 7523,
      "South": 7524,
      "share": 7525,
      "common": 7526,
      "Washington": 7527,
      "however": 7528,
      "ban": 7529,
      "type": 7530,
      "ming": 7531,
      "service": 7532,
      "artment": 7533,
      "anger": 7534,
      "27": 7535,
      "played": 7536,
      "decision": 7537,
      "lies": 7538,
      "ox": 7539,
      "white": 7540,
      "enn": 7541,
      "draw": 7542,
      "energy": 7543,
      "docu": 7544,
      "ai": 7545,
      "federal": 7546,
      "sound": 7547,
      "rate": 7548,
      "China": 7549,
      "model": 7550,
      ".)": 7551,
      "ham": 7552,
      "stat": 7553,
      "signific": 7554,
      "wrote": 7555,
      "role": 7556,
      "2012": 7557,
      "sell": 7558,
      "building": 7559,
      "everything": 7560,
      "conf": 7561,
      "ging": 7562,
      "feat": 7563,
      "final": 7564,
      "ana": 7565,
      "begin": 7566,
      "whole": 7567,
      "further": 7568,
      "ES": 7569,
      "tit": 7570,
      "htt": 7571,
      "development": 7572,
      "word": 7573,
      "released": 7574,
      "**": 7575,
      "attle": 7576,
      "lish": 7577,
      "reme": 7578,
      "dle": 7579,
      "inste": 7580,
      "statement": 7581,
      "matter": 7582,
      "dou": 7583,
      "ife": 7584,
      "Pe": 7585,
      "anim": 7586,
      "Pho": 7587,
      "inj": 7588,
      "elt": 7589,
      "officials": 7590,
      "utes": 7591,
      "companies": 7592,
      "meas": 7593,
      "chall": 7594,
      "seems": 7595,
      "states": 7596,
      "match": 7597,
      "represent": 7598,
      "medi": 7599,
      "26": 7600,
      "administ": 7601,
      "pie": 7602,
      "host": 7603,
      "specific": 7604,
      "mis": 7605,
      "init": 7606,
      "ively": 7607,
      "custom": 7608,
      "ford": 7609,
      "term": 7610,
      "saw": 7611,
      "jud": 7612,
      "character": 7613,
      "track": 7614,
      "itted": 7615,
      "town": 7616,
      "leaders": 7617,
      "uation": 7618,
      "true": 7619,
      "ender": 7620,
      "cand": 7621,
      "://": 7622,
      "changes": 7623,
      "execut": 7624,
      "mag": 7625,
      "asing": 7626,
      "pite": 7627,
      "vironment": 7628,
      "began": 7629,
      "urs": 7630,
      "value": 7631,
      "continue": 7632,
      "general": 7633,
      "students": 7634,
      "News": 7635,
      "28": 7636,
      "personal": 7637,
      "hours": 7638,
      "appear": 7639,
      "himself": 7640,
      "wasn": 7641,
      "Per": 7642,
      "address": 7643,
      "itself": 7644,
      "launch": 7645,
      "typ": 7646,
      "words": 7647,
      "70": 7648,
      "cit": 7649,
      "became": 7650,
      "Sep": 7651,
      "ief": 7652,
      "ently": 7653,
      "evidence": 7654,
      "shot": 7655,
      "amer": 7656,
      "anti": 7657,
      "office": 7658,
      "els": 7659,
      "provide": 7660,
      "crim": 7661,
      "playing": 7662,
      "profess": 7663,
      "lab": 7664,
      "Twit": 7665,
      "above": 7666,
      "vision": 7667,
      "outside": 7668,
      "Face": 7669,
      "needed": 7670,
      "29": 7671,
      "groups": 7672,
      "App": 7673,
      "lement": 7674,
      "themselves": 7675,
      "countries": 7676,
      "simply": 7677,
      "aut": 7678,
      "lam": 7679,
      "interview": 7680,
      "forward": 7681,
      "election": 7682,
      "held": 7683,
      "running": 7684,
      "Cor": 7685,
      "link": 7686,
      "uni": 7687,
      "TV": 7688,
      "ried": 7689,
      "worth": 7690,
      "sequ": 7691,
      "reco": 7692,
      "tru": 7693,
      "gir": 7694,
      "function": 7695,
      "diffic": 7696,
      "deli": 7697,
      "Mus": 7698,
      "espe": 7699,
      "mot": 7700,
      "significant": 7701,
      "include": 7702,
      "ades": 7703,
      "ctor": 7704,
      "continu": 7705,
      "==": 7706,
      "pack": 7707,
      "aul": 7708,
      "ify": 7709,
      "approach": 7710,
      "lock": 7711,
      "especially": 7712,
      "finan": 7713,
      "arter": 7714,
      "pose": 7715,
      "code": 7716,
      "drug": 7717,
      "ends": 7718,
      "Twitter": 7719,
      "vic": 7720,
      "ands": 7721,
      "____": 7722,
      "hor": 7723,
      "White": 7724,
      "expected": 7725,
      "release": 7726,
      "music": 7727,
      "itch": 7728,
      "economic": 7729,
      "pretty": 7730,
      "ctions": 7731,
      "everyone": 7732,
      "needs": 7733,
      "pain": 7734,
      "unity": 7735,
      "Ne": 7736,
      "stay": 7737,
      "below": 7738,
      "div": 7739,
      "wind": 7740,
      "deter": 7741,
      "billion": 7742,
      "super": 7743,
      "ilt": 7744,
      "relation": 7745,
      "vari": 7746,
      "Am": 7747,
      "relig": 7748,
      "quality": 7749,
      "Her": 7750,
      "sense": 7751,
      "push": 7752,
      "hol": 7753,
      "treat": 7754,
      "instead": 7755,
      "Here": 7756,
      "ournal": 7757,
      "necess": 7758,
      "lost": 7759,
      "commit": 7760,
      "vote": 7761,
      "Em": 7762,
      "industry": 7763,
      "quite": 7764,
      "shows": 7765,
      "cir": 7766,
      "rac": 7767,
      "God": 7768,
      "tee": 7769,
      "ports": 7770,
      "audi": 7771,
      "thod": 7772,
      "total": 7773,
      "Facebook": 7774,
      "lower": 7775,
      "believ": 7776,
      "accept": 7777,
      "shoot": 7778,
      "educ": 7779,
      "AC": 7780,
      "nation": 7781,
      "angu": 7782,
      "More": 7783,
      "Su": 7784,
      "198": 7785,
      "ogle": 7786,
      "AM": 7787,
      "log": 7788,
      "Ear": 7789,
      "Oc": 7790,
      "phys": 7791,
      "II": 7792,
      "sess": 7793,
      "cil": 7794,
      "spir": 7795,
      "Aug": 7796,
      "joy": 7797,
      "dict": 7798,
      "ery": 7799,
      "recently": 7800,
      "Qu": 7801,
      "candid": 7802,
      "strate": 7803,
      "Red": 7804,
      "According": 7805,
      "ples": 7806,
      "iding": 7807,
      "alleg": 7808,
      "March": 7809,
      "oud": 7810,
      "Par": 7811,
      "urch": 7812,
      "respect": 7813,
      "serious": 7814,
      "moment": 7815,
      "bly": 7816,
      "sed": 7817,
      "goal": 7818,
      "Photo": 7819,
      "Gre": 7820,
      "sw": 7821,
      "period": 7822,
      "soon": 7823,
      "core": 7824,
      "Of": 7825,
      "weeks": 7826,
      "Des": 7827,
      "Sm": 7828,
      "opport": 7829,
      "popular": 7830,
      "ners": 7831,
      "review": 7832,
      "Ab": 7833,
      "online": 7834,
      "June": 7835,
      "ament": 7836,
      "terror": 7837,
      "forman": 7838,
      "emp": 7839,
      "demand": 7840,
      "page": 7841,
      "Republican": 7842,
      "ino": 7843,
      "2011": 7844,
      "AP": 7845,
      "moved": 7846,
      "bert": 7847,
      "pan": 7848,
      "uel": 7849,
      "Syri": 7850,
      "killed": 7851,
      "comput": 7852,
      "ption": 7853,
      "scri": 7854,
      "famil": 7855,
      "compl": 7856,
      "35": 7857,
      "duct": 7858,
      "wrong": 7859,
      "object": 7860,
      "flo": 7861,
      "rup": 7862,
      "higher": 7863,
      "Act": 7864,
      "coup": 7865,
      "Apr": 7866,
      "rown": 7867,
      "longer": 7868,
      "rew": 7869,
      "surpr": 7870,
      "dead": 7871,
      "Cong": 7872,
      "express": 7873,
      "Google": 7874,
      "San": 7875,
      "article": 7876,
      "sat": 7877,
      "friends": 7878,
      "Department": 7879,
      "heart": 7880,
      "potential": 7881,
      "2010": 7882,
      "refer": 7883,
      "actions": 7884,
      "Even": 7885,
      "sha": 7886,
      "via": 7887,
      "environment": 7888,
      "July": 7889,
      "TH": 7890,
      "prim": 7891,
      "Cour": 7892,
      "Pal": 7893,
      "Off": 7894,
      "gas": 7895,
      "risk": 7896,
      "results": 7897,
      "technology": 7898,
      "hood": 7899,
      "tro": 7900,
      "covered": 7901,
      "amount": 7902,
      "Sat": 7903,
      "services": 7904,
      "scient": 7905,
      "Fir": 7906,
      "difficult": 7907,
      "attempt": 7908,
      "Friday": 7909,
      "anyone": 7910,
      "applic": 7911,
      "account": 7912,
      "comment": 7913,
      "ping": 7914,
      "created": 7915,
      "fair": 7916,
      "Hill": 7917,
      "pet": 7918,
      "target": 7919,
      "Congress": 7920,
      "ember": 7921,
      "AL": 7922,
      "Americans": 7923,
      "dit": 7924,
      "sold": 7925,
      "contract": 7926,
      "lin": 7927,
      "ung": 7928,
      "private": 7929,
      "minutes": 7930,
      "favor": 7931,
      "announced": 7932,
      "Austral": 7933,
      "problems": 7934,
      "moder": 7935,
      "received": 7936,
      "opt": 7937,
      "reve": 7938,
      "speak": 7939,
      "content": 7940,
      "base": 7941,
      "easy": 7942,
      "cases": 7943,
      "haps": 7944,
      "aterial": 7945,
      "April": 7946,
      "original": 7947,
      "earlier": 7948,
      "ouch": 7949,
      "verse": 7950,
      "contribut": 7951,
      "David": 7952,
      "ken": 7953,
      "firm": 7954,
      "performan": 7955,
      "civil": 7956,
      "OS": 7957,
      "OR": 7958,
      "increase": 7959,
      "coach": 7960,
      "na": 7961,
      "heav": 7962,
      "questions": 7963,
      "Russia": 7964,
      "counter": 7965,
      "impact": 7966,
      "lex": 7967,
      "users": 7968,
      "estab": 7969,
      "price": 7970,
      "international": 7971,
      "cannot": 7972,
      "apan": 7973,
      "protest": 7974,
      "IC": 7975,
      "source": 7976,
      "van": 7977,
      "exact": 7978,
      "hope": 7979,
      "Cr": 7980,
      "fast": 7981,
      "bon": 7982,
      "average": 7983,
      "arm": 7984,
      "Israel": 7985,
      "club": 7986,
      "99": 7987,
      "print": 7988,
      "ugg": 7989,
      "fill": 7990,
      "ilities": 7991,
      "ze": 7992,
      "ites": 7993,
      "involved": 7994,
      "First": 7995,
      "nearly": 7996,
      "global": 7997,
      "vict": 7998,
      "hi": 7999,
      "ometimes": 8000,
      "langu": 8001,
      "living": 8002,
      "worked": 8003,
      "leave": 8004,
      "sil": 8005,
      "Japan": 8006,
      "alter": 8007,
      "spect": 8008,
      "Geor": 8009,
      "responsi": 8010,
      "size": 8011,
      "arrest": 8012,
      "Post": 8013,
      "turned": 8014,
      "published": 8015,
      "45": 8016,
      "collect": 8017,
      "oil": 8018,
      "deep": 8019,
      "isl": 8020,
      "regard": 8021,
      "Donald": 8022,
      "lying": 8023,
      "itten": 8024,
      "intro": 8025,
      "East": 8026,
      "workers": 8027,
      "style": 8028,
      "fem": 8029,
      "weap": 8030,
      "request": 8031,
      "capital": 8032,
      "answer": 8033,
      "broad": 8034,
      "response": 8035,
      "staff": 8036,
      "member": 8037,
      "subject": 8038,
      "omb": 8039,
      "inside": 8040,
      "sort": 8041,
      "dol": 8042,
      "star": 8043,
      "decided": 8044,
      "reports": 8045,
      "director": 8046,
      "lack": 8047,
      "emer": 8048,
      "Wed": 8049,
      "lied": 8050,
      "aging": 8051,
      "nia": 8052,
      "January": 8053,
      "tre": 8054,
      "thern": 8055,
      "Tues": 8056,
      "Spe": 8057,
      "dig": 8058,
      "European": 8059,
      "Te": 8060,
      "ote": 8061,
      "ows": 8062,
      "fans": 8063,
      "lines": 8064,
      "cup": 8065,
      "Stre": 8066,
      "cli": 8067,
      "Phil": 8068,
      "immedi": 8069,
      "associ": 8070,
      "terms": 8071,
      "sem": 8072,
      "screen": 8073,
      "Sch": 8074,
      "Monday": 8075,
      "Mi": 8076,
      "hot": 8077,
      "gave": 8078,
      "squ": 8079,
      "EN": 8080,
      "email": 8081,
      "ffer": 8082,
      "takes": 8083,
      "Mark": 8084,
      "Tuesday": 8085,
      "\".": 8086,
      "relationship": 8087,
      "ored": 8088,
      "father": 8089,
      "financial": 8090,
      "tember": 8091,
      "simple": 8092,
      "mother": 8093,
      "bility": 8094,
      "aving": 8095,
      "built": 8096,
      "Char": 8097,
      "Star": 8098,
      "indic": 8099,
      "chance": 8100,
      "September": 8101,
      "happened": 8102,
      "Paul": 8103,
      "Islam": 8104,
      "arri": 8105,
      "buy": 8106,
      "pict": 8107,
      "recogn": 8108,
      "foreign": 8109,
      "Nove": 8110,
      "Ag": 8111,
      "tor": 8112,
      "influ": 8113,
      "west": 8114,
      "izing": 8115,
      "material": 8116,
      "whose": 8117,
      "Then": 8118,
      "onto": 8119,
      "currently": 8120,
      "bel": 8121,
      "Cali": 8122,
      "related": 8123,
      "felt": 8124,
      "British": 8125,
      "rock": 8126,
      "require": 8127,
      "Court": 8128,
      "UK": 8129,
      "production": 8130,
      "Cap": 8131,
      "vertis": 8132,
      "goes": 8133,
      "Well": 8134,
      "perform": 8135,
      "Black": 8136,
      "Dis": 8137,
      "Get": 8138,
      "November": 8139,
      "\",": 8140,
      "El": 8141,
      "usion": 8142,
      "Thurs": 8143,
      "race": 8144,
      "90": 8145,
      "areas": 8146,
      "wood": 8147,
      "heard": 8148,
      "Califor": 8149,
      "corpor": 8150,
      "plans": 8151,
      "couple": 8152,
      "197": 8153,
      "Wednes": 8154,
      ");": 8155,
      "Park": 8156,
      "][": 8157,
      "ica": 8158,
      "ny": 8159,
      "situation": 8160,
      "lives": 8161,
      "Pet": 8162,
      "atives": 8163,
      "walk": 8164,
      "bot": 8165,
      "fell": 8166,
      "grad": 8167,
      "ift": 8168,
      "administration": 8169,
      "huge": 8170,
      "lay": 8171,
      "meeting": 8172,
      "rain": 8173,
      "trade": 8174,
      "Canada": 8175,
      "Wednesday": 8176,
      "Thursday": 8177,
      "IT": 8178,
      "August": 8179,
      "anc": 8180,
      "feature": 8181,
      "thous": 8182,
      "nu": 8183,
      "tool": 8184,
      "From": 8185,
      "loss": 8186,
      "affect": 8187,
      "connect": 8188,
      "text": 8189,
      "Afr": 8190,
      "introdu": 8191,
      "struction": 8192,
      "engine": 8193,
      "stant": 8194,
      "gs": 8195,
      "occur": 8196,
      "Every": 8197,
      "method": 8198,
      "ring": 8199,
      "Lo": 8200,
      "secret": 8201,
      "itor": 8202,
      "Our": 8203,
      "tober": 8204,
      "events": 8205,
      "performance": 8206,
      "allowed": 8207,
      "coin": 8208,
      "tele": 8209,
      "avo": 8210,
      "teams": 8211,
      "quickly": 8212,
      "particip": 8213,
      "California": 8214,
      "mention": 8215,
      "path": 8216,
      "October": 8217,
      "Let": 8218,
      "wo": 8219,
      "seven": 8220,
      "Why": 8221,
      "neigh": 8222,
      "ky": 8223,
      "rid": 8224,
      "letter": 8225,
      "speed": 8226,
      "ises": 8227,
      "prison": 8228,
      "safe": 8229,
      "ival": 8230,
      "atory": 8231,
      "separ": 8232,
      "leading": 8233,
      "aled": 8234,
      "population": 8235,
      "spent": 8236,
      "growth": 8237,
      "economy": 8238,
      "Fin": 8239,
      "travel": 8240,
      "ij": 8241,
      "Sunday": 8242,
      "Dece": 8243,
      "knew": 8244,
      "image": 8245,
      "website": 8246,
      "ani": 8247,
      "istic": 8248,
      "repe": 8249,
      "written": 8250,
      "ases": 8251,
      "improve": 8252,
      "aily": 8253,
      "agre": 8254,
      "inv": 8255,
      "enjoy": 8256,
      "33": 8257,
      "bud": 8258,
      "December": 8259,
      "victim": 8260,
      "2009": 8261,
      "Sup": 8262,
      "tried": 8263,
      "Russian": 8264,
      "morning": 8265,
      "iment": 8266,
      "song": 8267,
      "havi": 8268,
      "Wal": 8269,
      "?”": 8270,
      "Up": 8271,
      "natural": 8272,
      "forces": 8273,
      "rect": 8274,
      "numbers": 8275,
      "user": 8276,
      "career": 8277,
      "legisl": 8278,
      "conduct": 8279,
      "progress": 8280,
      "included": 8281,
      "regular": 8282,
      "Times": 8283,
      "Ma": 8284,
      "perfect": 8285,
      "ients": 8286,
      "independ": 8287,
      "exc": 8288,
      "wants": 8289,
      "card": 8290,
      "fix": 8291,
      "respond": 8292,
      "ceed": 8293,
      "document": 8294,
      "ED": 8295,
      "demon": 8296,
      "prevent": 8297,
      "Iran": 8298,
      "King": 8299,
      "contact": 8300,
      "leader": 8301,
      "looks": 8302,
      "http": 8303,
      "ID": 8304,
      "Kore": 8305,
      "ops": 8306,
      "tour": 8307,
      "——": 8308,
      "range": 8309,
      "xim": 8310,
      "Sand": 8311,
      "visit": 8312,
      "movement": 8313,
      "anch": 8314,
      "sens": 8315,
      "cul": 8316,
      "secut": 8317,
      "paid": 8318,
      "32": 8319,
      "suit": 8320,
      "systems": 8321,
      "Hol": 8322,
      "olution": 8323,
      "Mor": 8324,
      "dy": 8325,
      "veh": 8326,
      "”.": 8327,
      "table": 8328,
      "pread": 8329,
      "500": 8330,
      "erson": 8331,
      "named": 8332,
      "bul": 8333,
      "labor": 8334,
      "citiz": 8335,
      "ological": 8336,
      "slow": 8337,
      "communic": 8338,
      "hear": 8339,
      "Gener": 8340,
      "Lon": 8341,
      "Center": 8342,
      "various": 8343,
      "2008": 8344,
      "brought": 8345,
      "igence": 8346,
      "ico": 8347,
      "Po": 8348,
      "rules": 8349,
      "mach": 8350,
      "focus": 8351,
      "teach": 8352,
      "attention": 8353,
      "network": 8354,
      "behavi": 8355,
      "looked": 8356,
      "Party": 8357,
      "yond": 8358,
      "aming": 8359,
      "exam": 8360,
      "giving": 8361,
      "ering": 8362,
      "medical": 8363,
      "undred": 8364,
      "Ira": 8365,
      "Cent": 8366,
      "fan": 8367,
      "hael": 8368,
      "ordin": 8369,
      "changed": 8370,
      "sn": 8371,
      "Sw": 8372,
      "considered": 8373,
      "Satur": 8374,
      "stead": 8375,
      "Street": 8376,
      "latest": 8377,
      "ST": 8378,
      "31": 8379,
      "OP": 8380,
      "dollar": 8381,
      "parents": 8382,
      "tur": 8383,
      "Police": 8384,
      "hands": 8385,
      "!!!!": 8386,
      "moving": 8387,
      "park": 8388,
      "ires": 8389,
      "arily": 8390,
      "Most": 8391,
      "upon": 8392,
      "employe": 8393,
      "except": 8394,
      "door": 8395,
      "suffer": 8396,
      "talking": 8397,
      "extreme": 8398,
      "Ben": 8399,
      "Iraq": 8400,
      "rank": 8401,
      "weet": 8402,
      "features": 8403,
      "FL": 8404,
      "ties": 8405,
      "science": 8406,
      "aves": 8407,
      "sym": 8408,
      "placed": 8409,
      "paper": 8410,
      "craft": 8411,
      "Read": 8412,
      "poor": 8413,
      "Pat": 8414,
      "depart": 8415,
      "language": 8416,
      "forms": 8417,
      "training": 8418,
      "install": 8419,
      "bir": 8420,
      "India": 8421,
      "Over": 8422,
      "critic": 8423,
      "conserv": 8424,
      "liber": 8425,
      "ays": 8426,
      "Tex": 8427,
      "tware": 8428,
      "Saturday": 8429,
      "learn": 8430,
      "multip": 8431,
      "writing": 8432,
      "Muslim": 8433,
      "weight": 8434,
      "stitution": 8435,
      "roy": 8436,
      "calls": 8437,
      "strugg": 8438,
      "cru": 8439,
      "parts": 8440,
      "Lu": 8441,
      "Ang": 8442,
      "Senate": 8443,
      "plat": 8444,
      "enced": 8445,
      "aker": 8446,
      "investigation": 8447,
      "fa": 8448,
      "Che": 8449,
      "increasing": 8450,
      "quarter": 8451,
      "Rom": 8452,
      "hous": 8453,
      "icles": 8454,
      "wise": 8455,
      "ously": 8456,
      "imag": 8457,
      "36": 8458,
      "defense": 8459,
      "addition": 8460,
      "regul": 8461,
      "stor": 8462,
      "claims": 8463,
      "particularly": 8464,
      "196": 8465,
      "mill": 8466,
      "concl": 8467,
      "immig": 8468,
      "completely": 8469,
      "AD": 8470,
      "incident": 8471,
      "Play": 8472,
      "Oh": 8473,
      "center": 8474,
      "pic": 8475,
      "ledge": 8476,
      "Michael": 8477,
      "consist": 8478,
      "London": 8479,
      "zon": 8480,
      "majority": 8481,
      "income": 8482,
      "rap": 8483,
      "society": 8484,
      "surve": 8485,
      "usually": 8486,
      "journal": 8487,
      "pped": 8488,
      "remember": 8489,
      "mur": 8490,
      "FC": 8491,
      "levels": 8492,
      "sexual": 8493,
      "mine": 8494,
      "active": 8495,
      "Willi": 8496,
      "zz": 8497,
      "pul": 8498,
      "fit": 8499,
      "effort": 8500,
      "aur": 8501,
      "speech": 8502,
      "Lab": 8503,
      "modern": 8504,
      "message": 8505,
      "Since": 8506,
      "piece": 8507,
      "Jew": 8508,
      "rict": 8509,
      "kept": 8510,
      "resour": 8511,
      "rich": 8512,
      "Air": 8513,
      "smo": 8514,
      "attacks": 8515,
      "chief": 8516,
      "People": 8517,
      "County": 8518,
      "Tor": 8519,
      "mist": 8520,
      "required": 8521,
      "Many": 8522,
      "Febr": 8523,
      "although": 8524,
      "officers": 8525,
      "UN": 8526,
      "February": 8527,
      "growing": 8528,
      "analys": 8529,
      "Tur": 8530,
      "jobs": 8531,
      "movie": 8532,
      "bol": 8533,
      "carry": 8534,
      "exactly": 8535,
      "intell": 8536,
      "www": 8537,
      "store": 8538,
      "interesting": 8539,
      "born": 8540,
      "Bro": 8541,
      "obvious": 8542,
      "figure": 8543,
      "prior": 8544,
      "described": 8545,
      "hundred": 8546,
      "middle": 8547,
      "spot": 8548,
      "despite": 8549,
      "limited": 8550,
      "Ke": 8551,
      "map": 8552,
      "bing": 8553,
      "anned": 8554,
      "note": 8555,
      "file": 8556,
      "Sci": 8557,
      "ape": 8558,
      "spokes": 8559,
      "guy": 8560,
      "cross": 8561,
      "Republicans": 8562,
      "century": 8563,
      "ode": 8564,
      "sometimes": 8565,
      "iet": 8566,
      "thinking": 8567,
      "products": 8568,
      "Str": 8569,
      "stuff": 8570,
      "biggest": 8571,
      "sett": 8572,
      "write": 8573,
      "reedom": 8574,
      "crow": 8575,
      "opportunity": 8576,
      "BI": 8577,
      "fo": 8578,
      "extra": 8579,
      "cry": 8580,
      "ries": 8581,
      "practice": 8582,
      "mic": 8583,
      "violence": 8584,
      "rench": 8585,
      "assist": 8586,
      "danger": 8587,
      "continued": 8588,
      "ampion": 8589,
      "Ber": 8590,
      "stories": 8591,
      "ican": 8592,
      "boy": 8593,
      "climate": 8594,
      "thus": 8595,
      "stage": 8596,
      "details": 8597,
      "wall": 8598,
      "served": 8599,
      "34": 8600,
      "37": 8601,
      "ker": 8602,
      "surv": 8603,
      "mat": 8604,
      "EU": 8605,
      "necessary": 8606,
      "histor": 8607,
      "Last": 8608,
      "reading": 8609,
      "League": 8610,
      "finally": 8611,
      "eight": 8612,
      "alone": 8613,
      "rit": 8614,
      "James": 8615,
      "item": 8616,
      "native": 8617,
      "wonder": 8618,
      "Rich": 8619,
      "standard": 8620,
      "inci": 8621,
      "MP": 8622,
      "ses": 8623,
      "designed": 8624,
      "kids": 8625,
      "girl": 8626,
      "appoint": 8627,
      "Bill": 8628,
      "inese": 8629,
      "sle": 8630,
      "spr": 8631,
      "laws": 8632,
      "Net": 8633,
      "?\"": 8634,
      "vice": 8635,
      "entially": 8636,
      "forced": 8637,
      "summer": 8638,
      "spital": 8639,
      "remain": 8640,
      "option": 8641,
      "ension": 8642,
      "deliver": 8643,
      "psy": 8644,
      "skill": 8645,
      "certainly": 8646,
      "rout": 8647,
      "starting": 8648,
      "hur": 8649,
      "implement": 8650,
      "Val": 8651,
      "Democratic": 8652,
      "vertisement": 8653,
      "camer": 8654,
      "lap": 8655,
      "purch": 8656,
      "Chinese": 8657,
      "saf": 8658,
      "nom": 8659,
      "mob": 8660,
      "costs": 8661,
      "happy": 8662,
      "culture": 8663,
      "ening": 8664,
      "lie": 8665,
      "cris": 8666,
      "books": 8667,
      "gone": 8668,
      "appeared": 8669,
      "neg": 8670,
      "aries": 8671,
      "cele": 8672,
      "perhaps": 8673,
      "increased": 8674,
      "forts": 8675,
      "ishing": 8676,
      "wel": 8677,
      "ened": 8678,
      "wife": 8679,
      "education": 8680,
      "select": 8681,
      "capt": 8682,
      "rep": 8683,
      "damage": 8684,
      "correct": 8685,
      "showed": 8686,
      "choice": 8687,
      "Bu": 8688,
      "maintain": 8689,
      "Green": 8690,
      "zer": 8691,
      "provided": 8692,
      "scene": 8693,
      "44": 8694,
      "comments": 8695,
      "Like": 8696,
      "inte": 8697,
      "reality": 8698,
      "ida": 8699,
      "EC": 8700,
      "Because": 8701,
      "region": 8702,
      "soft": 8703,
      "Thank": 8704,
      "died": 8705,
      "Apple": 8706,
      "plant": 8707,
      "remains": 8708,
      "join": 8709,
      "38": 8710,
      "bes": 8711,
      "ert": 8712,
      "PC": 8713,
      "directly": 8714,
      "passed": 8715,
      "charge": 8716,
      "arent": 8717,
      "Mart": 8718,
      "wouldn": 8719,
      "Jack": 8720,
      "hair": 8721,
      "stra": 8722,
      "utions": 8723,
      "rates": 8724,
      "tin": 8725,
      "beyond": 8726,
      "standing": 8727,
      "za": 8728,
      "sec": 8729,
      "sets": 8730,
      "challeng": 8731,
      "ware": 8732,
      "Au": 8733,
      "meaning": 8734,
      "religious": 8735,
      "ights": 8736,
      "Texas": 8737,
      "clean": 8738,
      "multiple": 8739,
      "lic": 8740,
      "touch": 8741,
      "Indian": 8742,
      "strict": 8743,
      "ification": 8744,
      "umb": 8745,
      "epis": 8746,
      "couldn": 8747,
      "Although": 8748,
      "complex": 8749,
      "safety": 8750,
      "Image": 8751,
      "Day": 8752,
      "Minister": 8753,
      "Tom": 8754,
      "property": 8755,
      "additional": 8756,
      "football": 8757,
      "title": 8758,
      "computer": 8759,
      "drive": 8760,
      "blood": 8761,
      "istan": 8762,
      "software": 8763,
      "Bre": 8764,
      "efforts": 8765,
      "atever": 8766,
      "celebr": 8767,
      "Associ": 8768,
      "towards": 8769,
      "suspect": 8770,
      "ables": 8771,
      "High": 8772,
      "claimed": 8773,
      "agree": 8774,
      "ET": 8775,
      "central": 8776,
      "pressure": 8777,
      "CO": 8778,
      "48": 8779,
      "Super": 8780,
      "iff": 8781,
      "voters": 8782,
      "Ho": 8783,
      "includes": 8784,
      "inde": 8785,
      "sites": 8786,
      "command": 8787,
      "School": 8788,
      "guys": 8789,
      "throw": 8790,
      "throughout": 8791,
      "Tod": 8792,
      "relative": 8793,
      "aughter": 8794,
      "opin": 8795,
      "venue": 8796,
      "reli": 8797,
      "enge": 8798,
      "beginning": 8799,
      "immediately": 8800,
      "scr": 8801,
      "akers": 8802,
      "recomm": 8803,
      "George": 8804,
      "student": 8805,
      "insur": 8806,
      "thousands": 8807,
      "Mac": 8808,
      "largest": 8809,
      "(@": 8810,
      "Smith": 8811,
      "effects": 8812,
      "reng": 8813,
      "Gover": 8814,
      "eyes": 8815,
      "appears": 8816,
      "nature": 8817,
      "hero": 8818,
      "gar": 8819,
      "feed": 8820,
      "Mex": 8821,
      "officer": 8822,
      "--------": 8823,
      "ahead": 8824,
      "consum": 8825,
      "agency": 8826,
      "battle": 8827,
      "resh": 8828,
      "German": 8829,
      "English": 8830,
      "era": 8831,
      "receive": 8832,
      "hab": 8833,
      "reached": 8834,
      "cool": 8835,
      "PS": 8836,
      "toward": 8837,
      "controll": 8838,
      "shop": 8839,
      "Democrats": 8840,
      "Wind": 8841,
      "flow": 8842,
      "aint": 8843,
      "league": 8844,
      "organization": 8845,
      "CE": 8846,
      "characters": 8847,
      "dark": 8848,
      "airs": 8849,
      "Def": 8850,
      "mitted": 8851,
      "Germany": 8852,
      "budget": 8853,
      "setting": 8854,
      "bri": 8855,
      "device": 8856,
      "sched": 8857,
      "syn": 8858,
      "maybe": 8859,
      "trust": 8860,
      "iers": 8861,
      "copy": 8862,
      "Reg": 8863,
      "owners": 8864,
      "reasons": 8865,
      "Bel": 8866,
      "drink": 8867,
      "conference": 8868,
      "difference": 8869,
      "aly": 8870,
      "debate": 8871,
      "stock": 8872,
      "failed": 8873,
      "conditions": 8874,
      "places": 8875,
      "brain": 8876,
      "blog": 8877,
      "astic": 8878,
      "positive": 8879,
      "CH": 8880,
      "agon": 8881,
      "stream": 8882,
      "49": 8883,
      "fear": 8884,
      "encies": 8885,
      "ope": 8886,
      "alleged": 8887,
      "Trans": 8888,
      "liter": 8889,
      "uk": 8890,
      "idge": 8891,
      "estim": 8892,
      "Two": 8893,
      "credit": 8894,
      "spending": 8895,
      "adem": 8896,
      "signed": 8897,
      "39": 8898,
      "Ham": 8899,
      "color": 8900,
      "confir": 8901,
      "antic": 8902,
      "Earth": 8903,
      "55": 8904,
      "advant": 8905,
      "Sal": 8906,
      "lease": 8907,
      "mix": 8908,
      "encour": 8909,
      "Syria": 8910,
      "beat": 8911,
      "criminal": 8912,
      "earch": 8913,
      "analysis": 8914,
      "presidential": 8915,
      "French": 8916,
      "helped": 8917,
      "Mer": 8918,
      "During": 8919,
      "allows": 8920,
      "frequ": 8921,
      "section": 8922,
      "shown": 8923,
      "nuclear": 8924,
      "ari": 8925,
      "convers": 8926,
      "Mid": 8927,
      "avoid": 8928,
      "powerful": 8929,
      "yn": 8930,
      "crime": 8931,
      "myself": 8932,
      "bum": 8933,
      "prep": 8934,
      "Other": 8935,
      "green": 8936,
      "Thom": 8937,
      "Jer": 8938,
      "streng": 8939,
      "normal": 8940,
      "executive": 8941,
      "Your": 8942,
      "instit": 8943,
      "meant": 8944,
      "distribut": 8945,
      "eventually": 8946,
      "yourself": 8947,
      "ield": 8948,
      "teen": 8949,
      "counts": 8950,
      "predict": 8951,
      "solute": 8952,
      "bound": 8953,
      "developed": 8954,
      "wing": 8955,
      "Yes": 8956,
      "47": 8957,
      "detail": 8958,
      "stic": 8959,
      "truth": 8960,
      "physical": 8961,
      "General": 8962,
      "origin": 8963,
      "):": 8964,
      "mental": 8965,
      "vention": 8966,
      "voice": 8967,
      "2007": 8968,
      "princi": 8969,
      "politics": 8970,
      "lose": 8971,
      "International": 8972,
      "ultim": 8973,
      "poll": 8974,
      "tic": 8975,
      "thers": 8976,
      "unique": 8977,
      "upd": 8978,
      "college": 8979,
      "hest": 8980,
      "nice": 8981,
      "excl": 8982,
      "eye": 8983,
      "minim": 8984,
      "OT": 8985,
      "acqu": 8986,
      "weapons": 8987,
      "compared": 8988,
      "Mal": 8989,
      "successful": 8990,
      "sou": 8991,
      "Rob": 8992,
      "lection": 8993,
      "cture": 8994,
      "families": 8995,
      "Bit": 8996,
      "prem": 8997,
      "iver": 8998,
      "candidate": 8999,
      "schools": 9000,
      "ufact": 9001,
      "berg": 9002,
      "Bay": 9003,
      "Gold": 9004,
      "SA": 9005,
      "gender": 9006,
      "propos": 9007,
      "unk": 9008,
      "Union": 9009,
      "lands": 9010,
      "followed": 9011,
      "crisis": 9012,
      "integr": 9013,
      "cities": 9014,
      "sea": 9015,
      "smart": 9016,
      "names": 9017,
      "ov": 9018,
      "determin": 9019,
      "ission": 9020,
      "stitute": 9021,
      "ux": 9022,
      "dog": 9023,
      "anced": 9024,
      "Council": 9025,
      "inno": 9026,
      "promot": 9027,
      "contr": 9028,
      "gives": 9029,
      "domin": 9030,
      "fol": 9031,
      "Australia": 9032,
      "fighting": 9033,
      "senior": 9034,
      "apped": 9035,
      "Advertisement": 9036,
      "kick": 9037,
      "willing": 9038,
      "intelligence": 9039,
      "iles": 9040,
      "cise": 9041,
      "Cal": 9042,
      "cat": 9043,
      "easily": 9044,
      "Alex": 9045,
      "Vir": 9046,
      "treatment": 9047,
      "sco": 9048,
      "peace": 9049,
      "station": 9050,
      "activity": 9051,
      "assa": 9052,
      "confl": 9053,
      "murder": 9054,
      "previously": 9055,
      "overall": 9056,
      "rule": 9057,
      "IA": 9058,
      "concept": 9059,
      "Christian": 9060,
      "die": 9061,
      "rise": 9062,
      "decades": 9063,
      "session": 9064,
      "impress": 9065,
      "ideas": 9066,
      "Law": 9067,
      "Mag": 9068,
      "Angel": 9069,
      "analy": 9070,
      "chan": 9071,
      "status": 9072,
      "autom": 9073,
      "omen": 9074,
      "calling": 9075,
      "benefits": 9076,
      "fortun": 9077,
      "display": 9078,
      "expand": 9079,
      "Any": 9080,
      "individuals": 9081,
      "funding": 9082,
      "ateg": 9083,
      "ivity": 9084,
      "PM": 9085,
      "cum": 9086,
      "serve": 9087,
      "operation": 9088,
      "brand": 9089,
      "Stud": 9090,
      "Scott": 9091,
      "Ter": 9092,
      "spread": 9093,
      "hon": 9094,
      "straight": 9095,
      "aware": 9096,
      "projects": 9097,
      "ston": 9098,
      "grand": 9099,
      "Flor": 9100,
      "Also": 9101,
      "winning": 9102,
      "asc": 9103,
      "adding": 9104,
      "beaut": 9105,
      "birth": 9106,
      "continues": 9107,
      "send": 9108,
      "customers": 9109,
      "Met": 9110,
      "Gl": 9111,
      "Follow": 9112,
      "clearly": 9113,
      "agreement": 9114,
      "apparent": 9115,
      "revol": 9116,
      "Ano": 9117,
      "mun": 9118,
      "phen": 9119,
      "Sim": 9120,
      "IP": 9121,
      "Bank": 9122,
      "Are": 9123,
      "Ty": 9124,
      "Another": 9125,
      "highly": 9126,
      "75": 9127,
      "64": 9128,
      "aling": 9129,
      "iew": 9130,
      "iced": 9131,
      "Add": 9132,
      "goals": 9133,
      "noted": 9134,
      "commer": 9135,
      "minor": 9136,
      "doub": 9137,
      "itely": 9138,
      "eth": 9139,
      "aud": 9140,
      "closed": 9141,
      "larger": 9142,
      "Once": 9143,
      "policies": 9144,
      "seemed": 9145,
      "Who": 9146,
      "greater": 9147,
      "comfort": 9148,
      "wait": 9149,
      "studies": 9150,
      "democr": 9151,
      "save": 9152,
      "je": 9153,
      "female": 9154,
      "scale": 9155,
      "fine": 9156,
      "Sam": 9157,
      "seeing": 9158,
      "tick": 9159,
      "psych": 9160,
      "org": 9161,
      "enforce": 9162,
      "CN": 9163,
      "feet": 9164,
      "knowledge": 9165,
      "Art": 9166,
      "aste": 9167,
      "traditional": 9168,
      "caused": 9169,
      "bomb": 9170,
      "gold": 9171,
      "spend": 9172,
      "charges": 9173,
      "measure": 9174,
      "enem": 9175,
      "ta": 9176,
      "lif": 9177,
      "abs": 9178,
      "options": 9179,
      "task": 9180,
      "Ry": 9181,
      "challenge": 9182,
      "stood": 9183,
      "PR": 9184,
      "organiz": 9185,
      "goti": 9186,
      "church": 9187,
      "patients": 9188,
      "manufact": 9189,
      "shooting": 9190,
      "riage": 9191,
      "Health": 9192,
      "Hillary": 9193,
      "absolute": 9194,
      "scen": 9195,
      "stick": 9196,
      "produce": 9197,
      "knows": 9198,
      "ease": 9199,
      "sales": 9200,
      "emot": 9201,
      "sources": 9202,
      "Press": 9203,
      "resources": 9204,
      "bs": 9205,
      "chair": 9206,
      "Lou": 9207,
      "sey": 9208,
      "manager": 9209,
      "primary": 9210,
      "Er": 9211,
      "Sha": 9212,
      "ality": 9213,
      "haven": 9214,
      "minister": 9215,
      "France": 9216,
      "temper": 9217,
      "ante": 9218,
      "employees": 9219,
      "suppor": 9220,
      "Mil": 9221,
      "creating": 9222,
      "mostly": 9223,
      "moun": 9224,
      "rare": 9225,
      "See": 9226,
      "programs": 9227,
      "produced": 9228,
      "ado": 9229,
      "GB": 9230,
      "hospital": 9231,
      "neighbor": 9232,
      "basic": 9233,
      "Cur": 9234,
      "actual": 9235,
      "asy": 9236,
      "isions": 9237,
      "leaving": 9238,
      "England": 9239,
      "effic": 9240,
      "bab": 9241,
      "researchers": 9242,
      "whatever": 9243,
      "Internet": 9244,
      "sad": 9245,
      "Frank": 9246,
      "Bush": 9247,
      "reflect": 9248,
      "iar": 9249,
      "Sanders": 9250,
      "Florida": 9251,
      "Rev": 9252,
      "ensure": 9253,
      "trou": 9254,
      "prosecut": 9255,
      "fee": 9256,
      "freedom": 9257,
      "46": 9258,
      "catch": 9259,
      "pool": 9260,
      "establish": 9261,
      "types": 9262,
      "agreed": 9263,
      "ville": 9264,
      "edge": 9265,
      "iction": 9266,
      "fal": 9267,
      "negoti": 9268,
      "shut": 9269,
      "ube": 9270,
      "Det": 9271,
      "etc": 9272,
      ".’": 9273,
      "ram": 9274,
      "enty": 9275,
      "Chic": 9276,
      "values": 9277,
      "street": 9278,
      "drop": 9279,
      "orders": 9280,
      "ga": 9281,
      "repor": 9282,
      "</": 9283,
      "images": 9284,
      "demonstr": 9285,
      "Hum": 9286,
      "witch": 9287,
      "supposed": 9288,
      "resist": 9289,
      "ked": 9290,
      "authorities": 9291,
      "La": 9292,
      "rant": 9293,
      "Sub": 9294,
      "dre": 9295,
      "Instead": 9296,
      "concerns": 9297,
      "roid": 9298,
      "massive": 9299,
      "Wall": 9300,
      "ength": 9301,
      "raised": 9302,
      "behavior": 9303,
      "frame": 9304,
      "Under": 9305,
      "fle": 9306,
      "Tech": 9307,
      "jump": 9308,
      "confirmed": 9309,
      "oph": 9310,
      "mail": 9311,
      "limit": 9312,
      "border": 9313,
      "coal": 9314,
      "bled": 9315,
      "asking": 9316,
      "NA": 9317,
      "Today": 9318,
      "assu": 9319,
      "Those": 9320,
      "critical": 9321,
      "wealth": 9322,
      "happens": 9323,
      "citizens": 9324,
      "cars": 9325,
      "Port": 9326,
      "lor": 9327,
      "mechan": 9328,
      "Big": 9329,
      "feeling": 9330,
      "independent": 9331,
      "da": 9332,
      "ava": 9333,
      "Mike": 9334,
      "Chicago": 9335,
      "Bur": 9336,
      "arms": 9337,
      "responsible": 9338,
      "application": 9339,
      "Chris": 9340,
      "favorite": 9341,
      "________": 9342,
      "species": 9343,
      "Western": 9344,
      "offered": 9345,
      "prices": 9346,
      "iving": 9347,
      "memory": 9348,
      "IL": 9349,
      "tend": 9350,
      "Palest": 9351,
      "Ru": 9352,
      "mod": 9353,
      "choose": 9354,
      "solution": 9355,
      ".'": 9356,
      "san": 9357,
      "appropri": 9358,
      "Arab": 9359,
      "bod": 9360,
      "posted": 9361,
      "eff": 9362,
      "fat": 9363,
      "sun": 9364,
      "chain": 9365,
      "iled": 9366,
      "weekend": 9367,
      "Game": 9368,
      "trial": 9369,
      "42": 9370,
      "album": 9371,
      "residents": 9372,
      "benefit": 9373,
      "MO": 9374,
      "eli": 9375,
      "lawy": 9376,
      "none": 9377,
      "Commission": 9378,
      "arrested": 9379,
      "ager": 9380,
      "erve": 9381,
      "PA": 9382,
      "iful": 9383,
      "slight": 9384,
      "virt": 9385,
      "investment": 9386,
      "lets": 9387,
      "Secret": 9388,
      "picture": 9389,
      "whom": 9390,
      "believed": 9391,
      "Mill": 9392,
      "parties": 9393,
      "effective": 9394,
      "supported": 9395,
      "rob": 9396,
      "mir": 9397,
      "brief": 9398,
      "gi": 9399,
      "blue": 9400,
      "revealed": 9401,
      "Los": 9402,
      "2006": 9403,
      "learning": 9404,
      "ING": 9405,
      "devices": 9406,
      "Justice": 9407,
      "EL": 9408,
      "heavy": 9409,
      "BA": 9410,
      "Ken": 9411,
      "attract": 9412,
      "pal": 9413,
      "Commit": 9414,
      "east": 9415,
      "curren": 9416,
      "Mad": 9417,
      "interested": 9418,
      "MA": 9419,
      "dollars": 9420,
      "IR": 9421,
      "Security": 9422,
      "strategy": 9423,
      "inner": 9424,
      "Pri": 9425,
      "advis": 9426,
      "65": 9427,
      "ota": 9428,
      "rating": 9429,
      "ieve": 9430,
      "Research": 9431,
      "mas": 9432,
      "ighest": 9433,
      "advantage": 9434,
      "dire": 9435,
      "learned": 9436,
      "Out": 9437,
      "inch": 9438,
      "thes": 9439,
      "male": 9440,
      "mig": 9441,
      "opening": 9442,
      "understanding": 9443,
      "train": 9444,
      "”,": 9445,
      "NFL": 9446,
      "preci": 9447,
      "records": 9448,
      "Micro": 9449,
      "vs": 9450,
      "Lin": 9451,
      "advoc": 9452,
      "Sil": 9453,
      "patter": 9454,
      "opposition": 9455,
      "Franc": 9456,
      "bow": 9457,
      "Canadian": 9458,
      "influence": 9459,
      "infr": 9460,
      "gers": 9461,
      "Both": 9462,
      "justice": 9463,
      "digital": 9464,
      "Direct": 9465,
      "amaz": 9466,
      "mode": 9467,
      "runs": 9468,
      "aj": 9469,
      "ami": 9470,
      "platform": 9471,
      "apt": 9472,
      "condition": 9473,
      "charged": 9474,
      "gather": 9475,
      "defend": 9476,
      "showing": 9477,
      "Prof": 9478,
      "minute": 9479,
      "belief": 9480,
      "opened": 9481,
      "construction": 9482,
      "300": 9483,
      "stone": 9484,
      "affic": 9485,
      "====": 9486,
      "SS": 9487,
      "Uk": 9488,
      "existing": 9489,
      "Liber": 9490,
      "stated": 9491,
      "generation": 9492,
      "explained": 9493,
      "daily": 9494,
      "plus": 9495,
      "highest": 9496,
      "shock": 9497,
      "vill": 9498,
      "debt": 9499,
      "Dist": 9500,
      "arian": 9501,
      "profit": 9502,
      "Ver": 9503,
      "pun": 9504,
      "location": 9505,
      "politic": 9506,
      "offers": 9507,
      "guard": 9508,
      "generally": 9509,
      "telling": 9510,
      "operations": 9511,
      "ni": 9512,
      "Francis": 9513,
      "nine": 9514,
      "mobile": 9515,
      "DA": 9516,
      "kid": 9517,
      "occup": 9518,
      "camera": 9519,
      "judge": 9520,
      "43": 9521,
      "fant": 9522,
      "DC": 9523,
      "Fox": 9524,
      "Sur": 9525,
      "provides": 9526,
      "hack": 9527,
      "worse": 9528,
      "Robert": 9529,
      "fare": 9530,
      "2000": 9531,
      "aked": 9532,
      "equip": 9533,
      "rants": 9534,
      "Tal": 9535,
      "icit": 9536,
      "oppon": 9537,
      "illegal": 9538,
      "structure": 9539,
      "vin": 9540,
      "makers": 9541,
      "sole": 9542,
      "liament": 9543,
      "driving": 9544,
      "Cup": 9545,
      "spl": 9546,
      "Leg": 9547,
      "Govern": 9548,
      "Please": 9549,
      "ads": 9550,
      "2005": 9551,
      "Office": 9552,
      "Jud": 9553,
      "definitely": 9554,
      "Time": 9555,
      "figh": 9556,
      "surround": 9557,
      "Brown": 9558,
      "Committee": 9559,
      "Sto": 9560,
      "holding": 9561,
      "sleep": 9562,
      "extremely": 9563,
      "usual": 9564,
      "theory": 9565,
      "management": 9566,
      "bottom": 9567,
      "constant": 9568,
      "ingly": 9569,
      "bour": 9570,
      "destroy": 9571,
      "accur": 9572,
      "views": 9573,
      "LA": 9574,
      "Back": 9575,
      "false": 9576,
      "ault": 9577,
      "opinion": 9578,
      "professional": 9579,
      "prefer": 9580,
      "machine": 9581,
      "consci": 9582,
      "Korea": 9583,
      "Del": 9584,
      "attor": 9585,
      "categ": 9586,
      "millions": 9587,
      "consu": 9588,
      "gency": 9589,
      "transfer": 9590,
      "rated": 9591,
      "occas": 9592,
      "Britain": 9593,
      "Pre": 9594,
      "floor": 9595,
      "Tri": 9596,
      "purpose": 9597,
      "electric": 9598,
      "owers": 9599,
      "wish": 9600,
      "Que": 9601,
      "becoming": 9602,
      "notice": 9603,
      "Islamic": 9604,
      "Despite": 9605,
      "Web": 9606,
      "ae": 9607,
      "Bal": 9608,
      "length": 9609,
      "pitch": 9610,
      "partners": 9611,
      "Rel": 9612,
      "tough": 9613,
      "negative": 9614,
      "Their": 9615,
      "associated": 9616,
      "shared": 9617,
      "oo": 9618,
      "double": 9619,
      "hundreds": 9620,
      "notes": 9621,
      "putting": 9622,
      "olf": 9623,
      "owner": 9624,
      "identified": 9625,
      "Church": 9626,
      "episode": 9627,
      "MS": 9628,
      "proposed": 9629,
      "click": 9630,
      "unit": 9631,
      "Windows": 9632,
      "err": 9633,
      "ining": 9634,
      "odes": 9635,
      "uana": 9636,
      "mentioned": 9637,
      "separate": 9638,
      "solid": 9639,
      "obtain": 9640,
      "reduce": 9641,
      "basis": 9642,
      "hearing": 9643,
      "earth": 9644,
      "Israeli": 9645,
      "41": 9646,
      "ito": 9647,
      "becomes": 9648,
      "Open": 9649,
      "UT": 9650,
      "afford": 9651,
      "television": 9652,
      "95": 9653,
      "committee": 9654,
      "faith": 9655,
      "ding": 9656,
      "controvers": 9657,
      "scientists": 9658,
      "zen": 9659,
      "daughter": 9660,
      "valid": 9661,
      "driver": 9662,
      "marriage": 9663,
      "remark": 9664,
      "eg": 9665,
      "Johnson": 9666,
      "rupt": 9667,
      "initial": 9668,
      "Good": 9669,
      "Gree": 9670,
      "wild": 9671,
      "PD": 9672,
      "atically": 9673,
      "coverage": 9674,
      "bell": 9675,
      "prop": 9676,
      "Medic": 9677,
      "insurance": 9678,
      "fresh": 9679,
      "phil": 9680,
      "formation": 9681,
      "miles": 9682,
      "legislation": 9683,
      "ered": 9684,
      "rum": 9685,
      "Will": 9686,
      "atures": 9687,
      "Ap": 9688,
      "FBI": 9689,
      "announce": 9690,
      "usive": 9691,
      "animals": 9692,
      "achieve": 9693,
      "complet": 9694,
      "Tre": 9695,
      "ato": 9696,
      "master": 9697,
      "rian": 9698,
      "ements": 9699,
      "dem": 9700,
      "internet": 9701,
      "pto": 9702,
      "issued": 9703,
      "conservative": 9704,
      "Ros": 9705,
      "BS": 9706,
      "nel": 9707,
      "imin": 9708,
      "restrict": 9709,
      "Found": 9710,
      "56": 9711,
      "tack": 9712,
      "icated": 9713,
      "vehicle": 9714,
      "flag": 9715,
      "cards": 9716,
      "accused": 9717,
      "ML": 9718,
      "lished": 9719,
      "famous": 9720,
      "cancer": 9721,
      "cells": 9722,
      "dangerous": 9723,
      "Miss": 9724,
      "documents": 9725,
      "gay": 9726,
      "aspect": 9727,
      "uries": 9728,
      "traffic": 9729,
      "gent": 9730,
      "ume": 9731,
      "watching": 9732,
      "LE": 9733,
      "amed": 9734,
      "raz": 9735,
      "Ukrain": 9736,
      "Yet": 9737,
      "enforcement": 9738,
      "returned": 9739,
      "Book": 9740,
      "Cha": 9741,
      "IV": 9742,
      "Jeff": 9743,
      "discovered": 9744,
      "server": 9745,
      "easier": 9746,
      "argument": 9747,
      "78": 9748,
      "Tim": 9749,
      "instance": 9750,
      "iven": 9751,
      "audience": 9752,
      "hus": 9753,
      "tact": 9754,
      "fuel": 9755,
      "gree": 9756,
      "McC": 9757,
      "ijuana": 9758,
      "doubt": 9759,
      "Ama": 9760,
      "exer": 9761,
      "radio": 9762,
      "sid": 9763,
      "victims": 9764,
      "hun": 9765,
      "leadership": 9766,
      "commercial": 9767,
      "Group": 9768,
      "ores": 9769,
      "joined": 9770,
      "incredi": 9771,
      "Sou": 9772,
      "older": 9773,
      "allowing": 9774,
      "plays": 9775,
      "grade": 9776,
      "Richard": 9777,
      "eline": 9778,
      "stress": 9779,
      "vation": 9780,
      "established": 9781,
      "steps": 9782,
      "han": 9783,
      "victory": 9784,
      "keeping": 9785,
      "Gar": 9786,
      "eat": 9787,
      "tests": 9788,
      "cash": 9789,
      "itter": 9790,
      "surface": 9791,
      "ships": 9792,
      "Jones": 9793,
      "capac": 9794,
      "trig": 9795,
      "compar": 9796,
      "sust": 9797,
      "spoke": 9798,
      "entirely": 9799,
      "launched": 9800,
      "items": 9801,
      "repeated": 9802,
      "micro": 9803,
      "background": 9804,
      "iev": 9805,
      "missing": 9806,
      "supporters": 9807,
      "missed": 9808,
      "voted": 9809,
      "department": 9810,
      "aggress": 9811,
      "Jim": 9812,
      "Mur": 9813,
      "explain": 9814,
      "sch": 9815,
      "iring": 9816,
      "finding": 9817,
      "communities": 9818,
      "north": 9819,
      "THE": 9820,
      "worst": 9821,
      "Carol": 9822,
      "tip": 9823,
      "please": 9824,
      "pa": 9825,
      "heat": 9826,
      "champion": 9827,
      "download": 9828,
      "Rock": 9829,
      "crowd": 9830,
      "bling": 9831,
      "maxim": 9832,
      "tren": 9833,
      "familiar": 9834,
      "abilities": 9835,
      "Afgh": 9836,
      "concerned": 9837,
      "Institute": 9838,
      "focused": 9839,
      "ara": 9840,
      "banks": 9841,
      "andon": 9842,
      "testing": 9843,
      "ght": 9844,
      "graphy": 9845,
      "Louis": 9846,
      "shall": 9847,
      "cook": 9848,
      "hone": 9849,
      "experiment": 9850,
      "burn": 9851,
      "https": 9852,
      "2018": 9853,
      "bag": 9854,
      "lad": 9855,
      "swe": 9856,
      "tools": 9857,
      "mous": 9858,
      "weak": 9859,
      "Bitcoin": 9860,
      "Fore": 9861,
      "cro": 9862,
      "dome": 9863,
      "degree": 9864,
      "spirit": 9865,
      "inct": 9866,
      "CA": 9867,
      "brary": 9868,
      "fish": 9869,
      "reform": 9870,
      "flight": 9871,
      "66": 9872,
      "istics": 9873,
      "0000": 9874,
      "crew": 9875,
      "contain": 9876,
      "lip": 9877,
      "writer": 9878,
      "rial": 9879,
      "decade": 9880,
      "Team": 9881,
      "corporate": 9882,
      "grant": 9883,
      "restaur": 9884,
      "strength": 9885,
      "requires": 9886,
      "01": 9887,
      "guess": 9888,
      "direction": 9889,
      "gain": 9890,
      "consequ": 9891,
      "Mod": 9892,
      "witness": 9893,
      "59": 9894,
      "strike": 9895,
      "initi": 9896,
      "Virgin": 9897,
      "Japanese": 9898,
      "58": 9899,
      "competition": 9900,
      "editor": 9901,
      "UR": 9902,
      "terri": 9903,
      "raise": 9904,
      "2004": 9905,
      "ano": 9906,
      "Mary": 9907,
      "believes": 9908,
      "planning": 9909,
      "housing": 9910,
      "farm": 9911,
      "smaller": 9912,
      "dat": 9913,
      "icon": 9914,
      "bid": 9915,
      "ule": 9916,
      "partner": 9917,
      "Palestin": 9918,
      "itude": 9919,
      "oppos": 9920,
      "annual": 9921,
      "suggested": 9922,
      "girls": 9923,
      "ounds": 9924,
      "Ryan": 9925,
      "57": 9926,
      "yes": 9927,
      "utin": 9928,
      "Atl": 9929,
      "brow": 9930,
      "assault": 9931,
      "changing": 9932,
      "husband": 9933,
      "USA": 9934,
      "homes": 9935,
      "pm": 9936,
      "truly": 9937,
      "zone": 9938,
      "compon": 9939,
      "Mexico": 9940,
      "Sol": 9941,
      "largely": 9942,
      "mical": 9943,
      "concern": 9944,
      "Bet": 9945,
      "nut": 9946,
      "waiting": 9947,
      "drugs": 9948,
      "caught": 9949,
      "crash": 9950,
      "chann": 9951,
      "detect": 9952,
      "nic": 9953,
      "acts": 9954,
      "African": 9955,
      "Free": 9956,
      "TO": 9957,
      "!”": 9958,
      "ctors": 9959,
      "Supreme": 9960,
      "Pak": 9961,
      "businesses": 9962,
      "Ok": 9963,
      "funds": 9964,
      "employment": 9965,
      "iel": 9966,
      "54": 9967,
      "Public": 9968,
      "izes": 9969,
      "conflict": 9970,
      "Thomas": 9971,
      "Watch": 9972,
      "pair": 9973,
      "()": 9974,
      "presence": 9975,
      "52": 9976,
      "infl": 9977,
      "register": 9978,
      "Ir": 9979,
      "icy": 9980,
      "union": 9981,
      "strateg": 9982,
      "string": 9983,
      "mut": 9984,
      "Association": 9985,
      "useful": 9986,
      "transport": 9987,
      "photos": 9988,
      "providing": 9989,
      "hate": 9990,
      "alle": 9991,
      "ester": 9992,
      "connection": 9993,
      "Afghan": 9994,
      "Government": 9995,
      "introduced": 9996,
      "managed": 9997,
      "recommend": 9998,
      "Sing": 9999,
      "rat": 10000,
      "update": 10001,
      "assess": 10002,
      "sche": 10003,
      "balance": 10004,
      "ya": 10005,
      "isation": 10006,
      "speaking": 10007,
      "hib": 10008,
      "Fire": 10009,
      "Jewish": 10010,
      "planet": 10011,
      "Great": 10012,
      "lights": 10013,
      "Martin": 10014,
      "igan": 10015,
      "offensive": 10016,
      "Microsoft": 10017,
      "disease": 10018,
      "measures": 10019,
      "commission": 10020,
      "finished": 10021,
      "activities": 10022,
      "igned": 10023,
      "aps": 10024,
      "laugh": 10025,
      "Prime": 10026,
      "HT": 10027,
      "skin": 10028,
      "ios": 10029,
      "circum": 10030,
      "iling": 10031,
      "selling": 10032,
      "##": 10033,
      "Bern": 10034,
      "candidates": 10035,
      "south": 10036,
      "Army": 10037,
      "CEO": 10038,
      "Service": 10039,
      "brother": 10040,
      "andom": 10041,
      "talent": 10042,
      "portion": 10043,
      "Ko": 10044,
      "fourth": 10045,
      "holds": 10046,
      "Jon": 10047,
      "draft": 10048,
      "relatively": 10049,
      "sports": 10050,
      "eful": 10051,
      "Mat": 10052,
      "irt": 10053,
      "arrived": 10054,
      "conversation": 10055,
      "Africa": 10056,
      "stopped": 10057,
      "committed": 10058,
      "outs": 10059,
      "tells": 10060,
      "Ms": 10061,
      "itation": 10062,
      "revolution": 10063,
      "cript": 10064,
      "eval": 10065,
      "accident": 10066,
      "gins": 10067,
      "faces": 10068,
      "sky": 10069,
      "azine": 10070,
      "Dan": 10071,
      "decisions": 10072,
      "taxes": 10073,
      "Den": 10074,
      "Hel": 10075,
      "cuts": 10076,
      "novel": 10077,
      "spokesman": 10078,
      "beautiful": 10079,
      "refuge": 10080,
      "reject": 10081,
      "liance": 10082,
      "planned": 10083,
      "anta": 10084,
      "Di": 10085,
      "slightly": 10086,
      "iation": 10087,
      "sides": 10088,
      "Angeles": 10089,
      "Jose": 10090,
      "marijuana": 10091,
      "subscri": 10092,
      "loved": 10093,
      "Gen": 10094,
      "interests": 10095,
      "identity": 10096,
      "icial": 10097,
      "fing": 10098,
      "cks": 10099,
      "ba": 10100,
      "scientific": 10101,
      "beer": 10102,
      "award": 10103,
      "pts": 10104,
      "removed": 10105,
      "mere": 10106,
      "eless": 10107,
      "hasn": 10108,
      "Top": 10109,
      "killing": 10110,
      "feels": 10111,
      "corner": 10112,
      "protection": 10113,
      "Bef": 10114,
      "presents": 10115,
      "GOP": 10116,
      "construct": 10117,
      "Before": 10118,
      "abuse": 10119,
      "therefore": 10120,
      "collection": 10121,
      "fired": 10122,
      "injury": 10123,
      "boys": 10124,
      "Camp": 10125,
      "adium": 10126,
      "lived": 10127,
      "failure": 10128,
      "formed": 10129,
      "files": 10130,
      "armed": 10131,
      "constitution": 10132,
      "dden": 10133,
      "bac": 10134,
      "ka": 10135,
      "Bob": 10136,
      "context": 10137,
      "techni": 10138,
      "Colle": 10139,
      "immigration": 10140,
      "skills": 10141,
      "Roy": 10142,
      "uce": 10143,
      "ounder": 10144,
      "otherwise": 10145,
      "Secretary": 10146,
      "itz": 10147,
      "oring": 10148,
      "mes": 10149,
      "newsp": 10150,
      "atest": 10151,
      "standards": 10152,
      "expensive": 10153,
      "vant": 10154,
      "bass": 10155,
      "paying": 10156,
      "fiel": 10157,
      "fellow": 10158,
      "healthy": 10159,
      "numer": 10160,
      "hang": 10161,
      "rot": 10162,
      "Amazon": 10163,
      "supply": 10164,
      "environmental": 10165,
      "abort": 10166,
      "intended": 10167,
      "seconds": 10168,
      "rig": 10169,
      "models": 10170,
      "Mass": 10171,
      "py": 10172,
      "Social": 10173,
      "Comp": 10174,
      "Egy": 10175,
      "51": 10176,
      "FA": 10177,
      "Hall": 10178,
      "acknow": 10179,
      "Year": 10180,
      "Work": 10181,
      "Mos": 10182,
      "optim": 10183,
      "seek": 10184,
      "ronic": 10185,
      "CP": 10186,
      "animal": 10187,
      "Media": 10188,
      "thanks": 10189,
      "losing": 10190,
      "!\"": 10191,
      "Android": 10192,
      "bott": 10193,
      "survey": 10194,
      "fortunately": 10195,
      "53": 10196,
      "mad": 10197,
      "prove": 10198,
      "Peter": 10199,
      "figures": 10200,
      "mm": 10201,
      "unless": 10202,
      "carbon": 10203,
      "RO": 10204,
      "nar": 10205,
      "illa": 10206,
      "batter": 10207,
      "Ari": 10208,
      "score": 10209,
      "philos": 10210,
      "promise": 10211,
      "exchange": 10212,
      "enses": 10213,
      "sudden": 10214,
      "Egypt": 10215,
      "convict": 10216,
      "Syrian": 10217,
      "Chief": 10218,
      "appropriate": 10219,
      "bles": 10220,
      "ucky": 10221,
      "Look": 10222,
      "talks": 10223,
      "turns": 10224,
      "Pan": 10225,
      "ults": 10226,
      "possibly": 10227,
      "appearance": 10228,
      "suggests": 10229,
      "400": 10230,
      "Bow": 10231,
      "Where": 10232,
      "discussion": 10233,
      "filled": 10234,
      "IG": 10235,
      "neighborhood": 10236,
      "defensive": 10237,
      "reser": 10238,
      "filed": 10239,
      "****": 10240,
      "mort": 10241,
      "professor": 10242,
      "domestic": 10243,
      "veter": 10244,
      "Central": 10245,
      "Only": 10246,
      "sho": 10247,
      ">>": 10248,
      "tweet": 10249,
      "ansion": 10250,
      "absolutely": 10251,
      "ME": 10252,
      "eah": 10253,
      "Toronto": 10254,
      "lon": 10255,
      "Bud": 10256,
      "starts": 10257,
      "organizations": 10258,
      "broken": 10259,
      "insp": 10260,
      "acting": 10261,
      "operating": 10262,
      "evil": 10263,
      "humans": 10264,
      "Lee": 10265,
      "Phone": 10266,
      "univers": 10267,
      "dropped": 10268,
      "connected": 10269,
      "pes": 10270,
      "gotten": 10271,
      "sight": 10272,
      "seeking": 10273,
      "religion": 10274,
      "Gal": 10275,
      "accounts": 10276,
      "remind": 10277,
      "consul": 10278,
      "elements": 10279,
      "Jes": 10280,
      "sor": 10281,
      "elected": 10282,
      "Matt": 10283,
      "noon": 10284,
      "conce": 10285,
      "College": 10286,
      "gradu": 10287,
      "cycle": 10288,
      "amazing": 10289,
      "glass": 10290,
      "broadcast": 10291,
      "suff": 10292,
      "markets": 10293,
      "switch": 10294,
      "happening": 10295,
      "arg": 10296,
      "finish": 10297,
      "trip": 10298,
      "uty": 10299,
      "vast": 10300,
      "decide": 10301,
      "capacity": 10302,
      "].": 10303,
      "Williams": 10304,
      "Show": 10305,
      "satis": 10306,
      "!!!!!!!!": 10307,
      "bin": 10308,
      "variety": 10309,
      "rush": 10310,
      "academ": 10311,
      "ares": 10312,
      "apping": 10313,
      "1990": 10314,
      "lots": 10315,
      "Guard": 10316,
      "ifying": 10317,
      "schedul": 10318,
      "button": 10319,
      "carried": 10320,
      "lym": 10321,
      "district": 10322,
      "warning": 10323,
      "CNN": 10324,
      "depth": 10325,
      "alternative": 10326,
      "eter": 10327,
      "units": 10328,
      "impossible": 10329,
      "twice": 10330,
      "Journal": 10331,
      "stars": 10332,
      "pil": 10333,
      "fundament": 10334,
      "fif": 10335,
      "secure": 10336,
      "helping": 10337,
      "uded": 10338,
      "bigger": 10339,
      "creation": 10340,
      "mov": 10341,
      "AF": 10342,
      "Federal": 10343,
      "auto": 10344,
      "susp": 10345,
      "Mean": 10346,
      "valu": 10347,
      "apers": 10348,
      "Joe": 10349,
      "votes": 10350,
      "solar": 10351,
      "Men": 10352,
      "astru": 10353,
      "medic": 10354,
      "window": 10355,
      "68": 10356,
      "breaking": 10357,
      "Images": 10358,
      "Sum": 10359,
      "ett": 10360,
      "Conserv": 10361,
      "graphic": 10362,
      "increasingly": 10363,
      "error": 10364,
      "Down": 10365,
      "adjust": 10366,
      "aine": 10367,
      "worry": 10368,
      "plants": 10369,
      "arante": 10370,
      "agencies": 10371,
      "Maybe": 10372,
      "Bost": 10373,
      "wear": 10374,
      "aints": 10375,
      "vul": 10376,
      "apply": 10377,
      "comed": 10378,
      "sounds": 10379,
      "cow": 10380,
      "prime": 10381,
      "Far": 10382,
      "harm": 10383,
      "NAS": 10384,
      "owned": 10385,
      "Blue": 10386,
      "Sher": 10387,
      "Though": 10388,
      "iders": 10389,
      "shots": 10390,
      "spring": 10391,
      "pi": 10392,
      "sector": 10393,
      "faced": 10394,
      "fly": 10395,
      "quar": 10396,
      "chemical": 10397,
      "Each": 10398,
      "kin": 10399,
      "ancy": 10400,
      "uters": 10401,
      "Mel": 10402,
      "Cath": 10403,
      "Rem": 10404,
      "pieces": 10405,
      "lean": 10406,
      "located": 10407,
      "uration": 10408,
      "cred": 10409,
      "possibility": 10410,
      "voc": 10411,
      "Glo": 10412,
      "Steve": 10413,
      "authority": 10414,
      "Hor": 10415,
      "seat": 10416,
      "regarding": 10417,
      "positions": 10418,
      "sitting": 10419,
      "ander": 10420,
      "Lat": 10421,
      "Rad": 10422,
      "Note": 10423,
      "imagine": 10424,
      "agues": 10425,
      "apparently": 10426,
      "Ve": 10427,
      "trail": 10428,
      "————": 10429,
      "ibility": 10430,
      "developing": 10431,
      "Fig": 10432,
      "army": 10433,
      "surprising": 10434,
      "va": 10435,
      "acher": 10436,
      "Ron": 10437,
      "crack": 10438,
      "HL": 10439,
      "eper": 10440,
      "Life": 10441,
      "prospect": 10442,
      "Force": 10443,
      "ultimately": 10444,
      "honest": 10445,
      "Virginia": 10446,
      "bringing": 10447,
      "Hu": 10448,
      "patch": 10449,
      "Boston": 10450,
      "aks": 10451,
      "awa": 10452,
      "ulture": 10453,
      "capable": 10454,
      "prepared": 10455,
      "currency": 10456,
      "aces": 10457,
      "factor": 10458,
      "script": 10459,
      "Mich": 10460,
      "icide": 10461,
      "poses": 10462,
      "SP": 10463,
      "lyn": 10464,
      "ups": 10465,
      "pursu": 10466,
      "astructure": 10467,
      "olic": 10468,
      "reci": 10469,
      "asp": 10470,
      "affected": 10471,
      "dress": 10472,
      "Middle": 10473,
      "ador": 10474,
      "helps": 10475,
      "isher": 10476,
      "Sour": 10477,
      "sport": 10478,
      "Sign": 10479,
      "pin": 10480,
      "closer": 10481,
      "sphere": 10482,
      "Hist": 10483,
      "phones": 10484,
      "multi": 10485,
      "Mont": 10486,
      "SE": 10487,
      "Second": 10488,
      "developers": 10489,
      "attorney": 10490,
      "Power": 10491,
      "Foundation": 10492,
      "attend": 10493,
      "ki": 10494,
      "BBC": 10495,
      "experts": 10496,
      "deploy": 10497,
      "guarante": 10498,
      "expert": 10499,
      "presented": 10500,
      "soldiers": 10501,
      "Still": 10502,
      "internal": 10503,
      "Ten": 10504,
      "GO": 10505,
      "Right": 10506,
      "2003": 10507,
      "lob": 10508,
      "pping": 10509,
      "hase": 10510,
      "ception": 10511,
      "facing": 10512,
      "ada": 10513,
      "agent": 10514,
      "stret": 10515,
      "factors": 10516,
      "Carolina": 10517,
      "streets": 10518,
      "District": 10519,
      "Paris": 10520,
      "gment": 10521,
      "Four": 10522,
      "2001": 10523,
      "About": 10524,
      "cold": 10525,
      "occurred": 10526,
      "trick": 10527,
      "comfortable": 10528,
      "serving": 10529,
      "equal": 10530,
      "ours": 10531,
      "council": 10532,
      "surprise": 10533,
      "experienced": 10534,
      "applications": 10535,
      "thr": 10536,
      "rapid": 10537,
      "minimum": 10538,
      "urban": 10539,
      "Australian": 10540,
      "Francisco": 10541,
      "specifically": 10542,
      "penal": 10543,
      "sale": 10544,
      "tight": 10545,
      "tag": 10546,
      "gry": 10547,
      "cultural": 10548,
      "Ref": 10549,
      "umn": 10550,
      "porary": 10551,
      "pled": 10552,
      "conscious": 10553,
      "modif": 10554,
      "ruling": 10555,
      "stances": 10556,
      "Brad": 10557,
      "elections": 10558,
      "Inde": 10559,
      "embr": 10560,
      "Dani": 10561,
      "Labour": 10562,
      "Daily": 10563,
      "plane": 10564,
      "tel": 10565,
      "aters": 10566,
      "auth": 10567,
      "estimated": 10568,
      "quot": 10569,
      "approved": 10570,
      "nament": 10571,
      "cohol": 10572,
      "passing": 10573,
      "perspect": 10574,
      "shel": 10575,
      "icient": 10576,
      "jour": 10577,
      "ini": 10578,
      "stance": 10579,
      "Haw": 10580,
      "Hy": 10581,
      "weapon": 10582,
      "rick": 10583,
      "Getty": 10584,
      "sts": 10585,
      "bought": 10586,
      "powers": 10587,
      "tank": 10588,
      "boost": 10589,
      "governments": 10590,
      "DO": 10591,
      "pull": 10592,
      "cycl": 10593,
      "Andrew": 10594,
      "yards": 10595,
      "Thanks": 10596,
      "shift": 10597,
      "responsibility": 10598,
      "Mu": 10599,
      "dram": 10600,
      "clim": 10601,
      "regime": 10602,
      "pression": 10603,
      "complic": 10604,
      "evin": 10605,
      "seasons": 10606,
      "Human": 10607,
      "lan": 10608,
      "shape": 10609,
      "],": 10610,
      "tally": 10611,
      "batt": 10612,
      "hall": 10613,
      "random": 10614,
      "collap": 10615,
      "handle": 10616,
      "apart": 10617,
      "recru": 10618,
      "wearing": 10619,
      "Cy": 10620,
      "herself": 10621,
      "troops": 10622,
      "eds": 10623,
      "plate": 10624,
      "monitor": 10625,
      "broke": 10626,
      "determined": 10627,
      "ulate": 10628,
      "opportun": 10629,
      "saving": 10630,
      "pages": 10631,
      "combat": 10632,
      "04": 10633,
      "Bus": 10634,
      "weather": 10635,
      "sam": 10636,
      "revenue": 10637,
      "Stan": 10638,
      "hurt": 10639,
      "gri": 10640,
      "determine": 10641,
      "Spr": 10642,
      "array": 10643,
      "letters": 10644,
      "phy": 10645,
      "River": 10646,
      "tree": 10647,
      "Color": 10648,
      "tun": 10649,
      "originally": 10650,
      "resol": 10651,
      "bridge": 10652,
      "defined": 10653,
      "TI": 10654,
      "kins": 10655,
      "Science": 10656,
      "violent": 10657,
      "parent": 10658,
      "Pac": 10659,
      "nd": 10660,
      "1980": 10661,
      "greatest": 10662,
      "distance": 10663,
      "antly": 10664,
      "Dou": 10665,
      "refused": 10666,
      "privacy": 10667,
      "vehicles": 10668,
      "infrastructure": 10669,
      "obviously": 10670,
      "etic": 10671,
      "conducted": 10672,
      "equipment": 10673,
      "pointed": 10674,
      "Je": 10675,
      "....": 10676,
      "voting": 10677,
      "esterday": 10678,
      "rom": 10679,
      "listed": 10680,
      "rog": 10681,
      "Kel": 10682,
      "liberal": 10683,
      "arts": 10684,
      "Kar": 10685,
      "actor": 10686,
      "relevant": 10687,
      "assum": 10688,
      "offering": 10689,
      "77": 10690,
      "proto": 10691,
      "proposal": 10692,
      "Penn": 10693,
      "150": 10694,
      "territ": 10695,
      "nav": 10696,
[...]
